{
  "version": "1.0",
  "truncation": null,
  "padding": null,
  "added_tokens": [
    {
      "id": 0,
      "content": "[PAD]",
      "single_word": false,
      "lstrip": false,
      "rstrip": false,
      "normalized": false,
      "special": true
    },
    {
      "id": 1,
      "content": "[UNK]",
      "single_word": false,
      "lstrip": false,
      "rstrip": false,
      "normalized": false,
      "special": true
    },
    {
      "id": 2,
      "content": "[BOS]",
      "single_word": false,
      "lstrip": false,
      "rstrip": false,
      "normalized": false,
      "special": true
    },
    {
      "id": 3,
      "content": "[EOS]",
      "single_word": false,
      "lstrip": false,
      "rstrip": false,
      "normalized": false,
      "special": true
    },
    {
      "id": 4,
      "content": "[MASK]",
      "single_word": false,
      "lstrip": false,
      "rstrip": false,
      "normalized": false,
      "special": true
    }
  ],
  "normalizer": null,
  "pre_tokenizer": {
    "type": "Whitespace"
  },
  "post_processor": null,
  "decoder": null,
  "model": {
    "type": "BPE",
    "dropout": null,
    "unk_token": "[UNK]",
    "continuing_subword_prefix": null,
    "end_of_word_suffix": null,
    "fuse_unk": false,
    "byte_fallback": false,
    "ignore_merges": false,
    "vocab": {
      "[PAD]": 0,
      "[UNK]": 1,
      "[BOS]": 2,
      "[EOS]": 3,
      "[MASK]": 4,
      "!": 5,
      "'": 6,
      ",": 7,
      ".": 8,
      "0": 9,
      "1": 10,
      "2": 11,
      "3": 12,
      "4": 13,
      "5": 14,
      "6": 15,
      "7": 16,
      "8": 17,
      "9": 18,
      ":": 19,
      "?": 20,
      "a": 21,
      "b": 22,
      "c": 23,
      "d": 24,
      "e": 25,
      "f": 26,
      "g": 27,
      "h": 28,
      "i": 29,
      "j": 30,
      "k": 31,
      "l": 32,
      "m": 33,
      "n": 34,
      "o": 35,
      "p": 36,
      "q": 37,
      "r": 38,
      "s": 39,
      "t": 40,
      "u": 41,
      "v": 42,
      "w": 43,
      "x": 44,
      "y": 45,
      "z": 46,
      "er": 47,
      "th": 48,
      "us": 49,
      "ot": 50,
      "bot": 51,
      "user": 52,
      "ou": 53,
      "in": 54,
      "at": 55,
      "the": 56,
      "you": 57,
      "an": 58,
      "to": 59,
      "re": 60,
      "it": 61,
      "on": 62,
      "ll": 63,
      "es": 64,
      "ing": 65,
      "wh": 66,
      "me": 67,
      "ve": 68,
      "is": 69,
      "or": 70,
      "that": 71,
      "do": 72,
      "as": 73,
      "en": 74,
      "be": 75,
      "ar": 76,
      "he": 77,
      "le": 78,
      "ay": 79,
      "ow": 80,
      "id": 81,
      "go": 82,
      "ha": 83,
      "ke": 84,
      "what": 85,
      "so": 86,
      "we": 87,
      "se": 88,
      "ch": 89,
      "li": 90,
      "of": 91,
      "ld": 92,
      "and": 93,
      "ed": 94,
      "st": 95,
      "all": 96,
      "ut": 97,
      "are": 98,
      "have": 99,
      "did": 100,
      "wi": 101,
      "out": 102,
      "ne": 103,
      "gh": 104,
      "oo": 105,
      "one": 106,
      "ver": 107,
      "no": 108,
      "ere": 109,
      "they": 110,
      "al": 111,
      "ri": 112,
      "was": 113,
      "et": 114,
      "ab": 115,
      "ould": 116,
      "for": 117,
      "yes": 118,
      "ght": 119,
      "ti": 120,
      "like": 121,
      "but": 122,
      "my": 123,
      "ad": 124,
      "don": 125,
      "pe": 126,
      "mo": 127,
      "ink": 128,
      "ant": 129,
      "sh": 130,
      "ce": 131,
      "ter": 132,
      "now": 133,
      "ly": 134,
      "can": 135,
      "about": 136,
      "un": 137,
      "ro": 138,
      "think": 139,
      "too": 140,
      "od": 141,
      "how": 142,
      "get": 143,
      "thing": 144,
      "not": 145,
      "co": 146,
      "lo": 147,
      "our": 148,
      "your": 149,
      "some": 150,
      "ir": 151,
      "why": 152,
      "ally": 153,
      "ck": 154,
      "ho": 155,
      "day": 156,
      "want": 157,
      "good": 158,
      "ever": 159,
      "ther": 160,
      "with": 161,
      "going": 162,
      "if": 163,
      "there": 164,
      "ust": 165,
      "know": 166,
      "will": 167,
      "su": 168,
      "ent": 169,
      "ple": 170,
      "ra": 171,
      "ma": 172,
      "use": 173,
      "really": 174,
      "ur": 175,
      "any": 176,
      "fe": 177,
      "she": 178,
      "well": 179,
      "ni": 180,
      "would": 181,
      "pp": 182,
      "ea": 183,
      "just": 184,
      "sa": 185,
      "ook": 186,
      "art": 187,
      "wor": 188,
      "this": 189,
      "see": 190,
      "end": 191,
      "oun": 192,
      "ca": 193,
      "im": 194,
      "ry": 195,
      "every": 196,
      "should": 197,
      "ta": 198,
      "may": 199,
      "peo": 200,
      "people": 201,
      "new": 202,
      "lot": 203,
      "pl": 204,
      "ound": 205,
      "ive": 206,
      "look": 207,
      "does": 208,
      "then": 209,
      "ate": 210,
      "right": 211,
      "time": 212,
      "po": 213,
      "te": 214,
      "ig": 215,
      "than": 216,
      "need": 217,
      "car": 218,
      "nice": 219,
      "didn": 220,
      "ool": 221,
      "her": 222,
      "ok": 223,
      "sto": 224,
      "up": 225,
      "oney": 226,
      "money": 227,
      "ge": 228,
      "oh": 229,
      "maybe": 230,
      "ers": 231,
      "pro": 232,
      "vi": 233,
      "ind": 234,
      "him": 235,
      "mu": 236,
      "ong": 237,
      "cour": 238,
      "when": 239,
      "ear": 240,
      "gre": 241,
      "who": 242,
      "mean": 243,
      "am": 244,
      "sch": 245,
      "ard": 246,
      "school": 247,
      "got": 248,
      "ill": 249,
      "way": 250,
      "course": 251,
      "say": 252,
      "ble": 253,
      "ru": 254,
      "ty": 255,
      "alk": 256,
      "ba": 257,
      "bu": 258,
      "much": 259,
      "el": 260,
      "movi": 261,
      "love": 262,
      "cause": 263,
      "okay": 264,
      "eve": 265,
      "ga": 266,
      "la": 267,
      "because": 268,
      "sure": 269,
      "jo": 270,
      "other": 271,
      "ish": 272,
      "only": 273,
      "ion": 274,
      "let": 275,
      "ic": 276,
      "per": 277,
      "them": 278,
      "res": 279,
      "where": 280,
      "il": 281,
      "est": 282,
      "had": 283,
      "wo": 284,
      "been": 285,
      "happ": 286,
      "make": 287,
      "de": 288,
      "bet": 289,
      "off": 290,
      "ood": 291,
      "work": 292,
      "great": 293,
      "che": 294,
      "wa": 295,
      "read": 296,
      "more": 297,
      "take": 298,
      "thank": 299,
      "row": 300,
      "xt": 301,
      "00": 302,
      "fri": 303,
      "give": 304,
      "min": 305,
      "ess": 306,
      "something": 307,
      "friend": 308,
      "atch": 309,
      "fun": 310,
      "fro": 311,
      "from": 312,
      "ight": 313,
      "pa": 314,
      "ast": 315,
      "tell": 316,
      "movie": 317,
      "ac": 318,
      "bl": 319,
      "nt": 320,
      "ket": 321,
      "next": 322,
      "ounds": 323,
      "cle": 324,
      "fo": 325,
      "ought": 326,
      "ite": 327,
      "rain": 328,
      "has": 329,
      "were": 330,
      "his": 331,
      "eat": 332,
      "today": 333,
      "man": 334,
      "talk": 335,
      "won": 336,
      "never": 337,
      "com": 338,
      "gu": 339,
      "ather": 340,
      "start": 341,
      "mb": 342,
      "pre": 343,
      "put": 344,
      "year": 345,
      "come": 346,
      "here": 347,
      "ass": 348,
      "wait": 349,
      "ree": 350,
      "hope": 351,
      "proble": 352,
      "better": 353,
      "problem": 354,
      "ex": 355,
      "ist": 356,
      "der": 357,
      "pen": 358,
      "part": 359,
      "ater": 360,
      "tom": 361,
      "buy": 362,
      "job": 363,
      "bad": 364,
      "ous": 365,
      "old": 366,
      "gl": 367,
      "two": 368,
      "itt": 369,
      "doesn": 370,
      "could": 371,
      "long": 372,
      "ough": 373,
      "ation": 374,
      "their": 375,
      "very": 376,
      "each": 377,
      "said": 378,
      "fore": 379,
      "af": 380,
      "kes": 381,
      "home": 382,
      "call": 383,
      "di": 384,
      "fa": 385,
      "gs": 386,
      "ick": 387,
      "ine": 388,
      "most": 389,
      "feel": 390,
      "happen": 391,
      "bo": 392,
      "king": 393,
      "roo": 394,
      "ment": 395,
      "sho": 396,
      "ways": 397,
      "room": 398,
      "big": 399,
      "ep": 400,
      "sounds": 401,
      "tv": 402,
      "weather": 403,
      "nose": 404,
      "house": 405,
      "even": 406,
      "clo": 407,
      "ek": 408,
      "fer": 409,
      "wn": 410,
      "week": 411,
      "sta": 412,
      "tion": 413,
      "cket": 414,
      "food": 415,
      "vot": 416,
      "ange": 417,
      "whi": 418,
      "someone": 419,
      "anything": 420,
      "minut": 421,
      "pret": 422,
      "fr": 423,
      "ger": 424,
      "mat": 425,
      "ose": 426,
      "sp": 427,
      "win": 428,
      "show": 429,
      "clean": 430,
      "by": 431,
      "qu": 432,
      "ul": 433,
      "ves": 434,
      "ase": 435,
      "able": 436,
      "back": 437,
      "pretty": 438,
      "ci": 439,
      "lf": 440,
      "many": 441,
      "into": 442,
      "haven": 443,
      "always": 444,
      "hot": 445,
      "went": 446,
      "play": 447,
      "party": 448,
      "bus": 449,
      "kind": 450,
      "sme": 451,
      "yea": 452,
      "beli": 453,
      "still": 454,
      "world": 455,
      "ready": 456,
      "smell": 457,
      "yeah": 458,
      "hur": 459,
      "litt": 460,
      "mes": 461,
      "over": 462,
      "ving": 463,
      "watch": 464,
      "int": 465,
      "doing": 466,
      "heard": 467,
      "idea": 468,
      "ked": 469,
      "nothing": 470,
      "night": 471,
      "little": 472,
      "ball": 473,
      "ct": 474,
      "fi": 475,
      "sing": 476,
      "bab": 477,
      "cto": 478,
      "dri": 479,
      "dif": 480,
      "ph": 481,
      "wr": 482,
      "cost": 483,
      "news": 484,
      "after": 485,
      "differ": 486,
      "br": 487,
      "best": 488,
      "fir": 489,
      "might": 490,
      "orrow": 491,
      "times": 492,
      "urn": 493,
      "game": 494,
      "believe": 495,
      "cl": 496,
      "gir": 497,
      "told": 498,
      "girl": 499,
      "cit": 500,
      "hi": 501,
      "sor": 502,
      "vit": 503,
      "bea": 504,
      "ide": 505,
      "first": 506,
      "find": 507,
      "hard": 508,
      "les": 509,
      "vor": 510,
      "wish": 511,
      "resta": 512,
      "stu": 513,
      "urant": 514,
      "same": 515,
      "plan": 516,
      "tomorrow": 517,
      "different": 518,
      "restaurant": 519,
      "cut": 520,
      "care": 521,
      "ner": 522,
      "sw": 523,
      "ried": 524,
      "stop": 525,
      "years": 526,
      "happened": 527,
      "frid": 528,
      "matter": 529,
      "ak": 530,
      "cig": 531,
      "mis": 532,
      "teach": 533,
      "isn": 534,
      "down": 535,
      "aret": 536,
      "guess": 537,
      "minutes": 538,
      "cigaret": 539,
      "cent": 540,
      "five": 541,
      "lp": 542,
      "thought": 543,
      "help": 544,
      "bought": 545,
      "ft": 546,
      "na": 547,
      "try": 548,
      "turn": 549,
      "water": 550,
      "yet": 551,
      "stand": 552,
      "things": 553,
      "looking": 554,
      "happy": 555,
      "act": 556,
      "class": 557,
      "sorry": 558,
      "last": 559,
      "ser": 560,
      "spe": 561,
      "red": 562,
      "before": 563,
      "everyone": 564,
      "else": 565,
      "hand": 566,
      "kid": 567,
      "late": 568,
      "docto": 569,
      "als": 570,
      "already": 571,
      "lots": 572,
      "phone": 573,
      "doctor": 574,
      "din": 575,
      "eas": 576,
      "iz": 577,
      "list": 578,
      "tra": 579,
      "vis": 580,
      "those": 581,
      "another": 582,
      "talking": 583,
      "hurt": 584,
      "dent": 585,
      "ny": 586,
      "pu": 587,
      "por": 588,
      "par": 589,
      "run": 590,
      "smo": 591,
      "table": 592,
      "war": 593,
      "enjo": 594,
      "ade": 595,
      "cold": 596,
      "gain": 597,
      "thanks": 598,
      "close": 599,
      "wrong": 600,
      "enjoy": 601,
      "ave": 602,
      "eyes": 603,
      "hate": 604,
      "lu": 605,
      "must": 606,
      "side": 607,
      "tru": 608,
      "these": 609,
      "hear": 610,
      "seen": 611,
      "lice": 612,
      "nei": 613,
      "wasn": 614,
      "til": 615,
      "until": 616,
      "gets": 617,
      "wanted": 618,
      "mine": 619,
      "weekend": 620,
      "friday": 621,
      "dinner": 622,
      "listen": 623,
      "bre": 624,
      "bod": 625,
      "con": 626,
      "hour": 627,
      "mon": 628,
      "nu": 629,
      "ue": 630,
      "invit": 631,
      "ese": 632,
      "ason": 633,
      "stre": 634,
      "under": 635,
      "bath": 636,
      "mber": 637,
      "while": 638,
      "body": 639,
      "again": 640,
      "ele": 641,
      "ms": 642,
      "ps": 643,
      "ars": 644,
      "around": 645,
      "ident": 646,
      "change": 647,
      "light": 648,
      "life": 649,
      "ets": 650,
      "ticket": 651,
      "cks": 652,
      "save": 653,
      "visit": 654,
      "cor": 655,
      "dra": 656,
      "date": 657,
      "dic": 658,
      "fast": 659,
      "gr": 660,
      "ning": 661,
      "ting": 662,
      "walk": 663,
      "three": 664,
      "left": 665,
      "stay": 666,
      "yester": 667,
      "shouldn": 668,
      "police": 669,
      "cars": 670,
      "gave": 671,
      "yesterday": 672,
      "cre": 673,
      "cri": 674,
      "fin": 675,
      "free": 676,
      "less": 677,
      "mar": 678,
      "inter": 679,
      "dog": 680,
      "enough": 681,
      "having": 682,
      "keep": 683,
      "chan": 684,
      "mom": 685,
      "says": 686,
      "woman": 687,
      "000": 688,
      "started": 689,
      "favor": 690,
      "busy": 691,
      "student": 692,
      "bathroom": 693,
      "20": 694,
      "away": 695,
      "ious": 696,
      "low": 697,
      "later": 698,
      "pri": 699,
      "pounds": 700,
      "si": 701,
      "sal": 702,
      "sun": 703,
      "ors": 704,
      "dogs": 705,
      "sol": 706,
      "soon": 707,
      "self": 708,
      "took": 709,
      "pping": 710,
      "saw": 711,
      "looks": 712,
      "cheese": 713,
      "which": 714,
      "draw": 715,
      "cat": 716,
      "ction": 717,
      "four": 718,
      "fam": 719,
      "fish": 720,
      "ily": 721,
      "jok": 722,
      "pick": 723,
      "ato": 724,
      "real": 725,
      "reason": 726,
      "once": 727,
      "men": 728,
      "vel": 729,
      "doll": 730,
      "hed": 731,
      "ows": 732,
      "sometimes": 733,
      "fect": 734,
      "everything": 735,
      "pla": 736,
      "pocket": 737,
      "movies": 738,
      "perfect": 739,
      "blue": 740,
      "forever": 741,
      "city": 742,
      "kids": 743,
      "family": 744,
      "age": 745,
      "catch": 746,
      "fu": 747,
      "fat": 748,
      "hun": 749,
      "kill": 750,
      "loo": 751,
      "mer": 752,
      "mus": 753,
      "pay": 754,
      "sle": 755,
      "sick": 756,
      "ye": 757,
      "ital": 758,
      "engl": 759,
      "outside": 760,
      "rich": 761,
      "rible": 762,
      "thinking": 763,
      "irty": 764,
      "probab": 765,
      "whole": 766,
      "check": 767,
      "paint": 768,
      "rains": 769,
      "glad": 770,
      "couldn": 771,
      "ations": 772,
      "boy": 773,
      "shoes": 774,
      "beach": 775,
      "easy": 776,
      "english": 777,
      "probably": 778,
      "air": 779,
      "bit": 780,
      "book": 781,
      "bla": 782,
      "cr": 783,
      "ff": 784,
      "fre": 785,
      "made": 786,
      "pas": 787,
      "inst": 788,
      "itch": 789,
      "getting": 790,
      "please": 791,
      "makes": 792,
      "feet": 793,
      "friends": 794,
      "vote": 795,
      "high": 796,
      "travel": 797,
      "street": 798,
      "favorite": 799,
      "ber": 800,
      "band": 801,
      "cou": 802,
      "cof": 803,
      "cool": 804,
      "dirty": 805,
      "mil": 806,
      "ned": 807,
      "pres": 808,
      "sm": 809,
      "uses": 810,
      "using": 811,
      "used": 812,
      "espe": 813,
      "leave": 814,
      "live": 815,
      "almost": 816,
      "ants": 817,
      "lost": 818,
      "supp": 819,
      "super": 820,
      "fee": 821,
      "tax": 822,
      "story": 823,
      "ress": 824,
      "osed": 825,
      "cially": 826,
      "baby": 827,
      "cigarette": 828,
      "break": 829,
      "music": 830,
      "couple": 831,
      "coffee": 832,
      "especially": 833,
      "supposed": 834,
      "10": 835,
      "50": 836,
      "bas": 837,
      "bread": 838,
      "cra": 839,
      "dad": 840,
      "found": 841,
      "line": 842,
      "pers": 843,
      "rink": 844,
      "tal": 845,
      "ually": 846,
      "utif": 847,
      "butter": 848,
      "coll": 849,
      "wouldn": 850,
      "came": 851,
      "ign": 852,
      "store": 853,
      "ils": 854,
      "funny": 855,
      "wonder": 856,
      "guy": 857,
      "problems": 858,
      "fire": 859,
      "bring": 860,
      "beautif": 861,
      "port": 862,
      "luck": 863,
      "true": 864,
      "understand": 865,
      "students": 866,
      "full": 867,
      "black": 868,
      "beautiful": 869,
      "30": 870,
      "ago": 871,
      "app": 872,
      "dan": 873,
      "fru": 874,
      "ild": 875,
      "rough": 876,
      "tu": 877,
      "tes": 878,
      "ten": 879,
      "through": 880,
      "ton": 881,
      "white": 882,
      "bed": 883,
      "god": 884,
      "seat": 885,
      "ads": 886,
      "terrible": 887,
      "lose": 888,
      "without": 889,
      "knows": 890,
      "such": 891,
      "mail": 892,
      "card": 893,
      "deal": 894,
      "waiter": 895,
      "both": 896,
      "gerous": 897,
      "winter": 898,
      "costs": 899,
      "girlfriend": 900,
      "cigarettes": 901,
      "serious": 902,
      "month": 903,
      "interest": 904,
      "looked": 905,
      "president": 906,
      "dangerous": 907,
      "fruit": 908,
      "12": 909,
      "ban": 910,
      "bor": 911,
      "ces": 912,
      "ced": 913,
      "des": 914,
      "dro": 915,
      "drink": 916,
      "flo": 917,
      "hit": 918,
      "hon": 919,
      "ies": 920,
      "ls": 921,
      "pare": 922,
      "piz": 923,
      "tr": 924,
      "za": 925,
      "ush": 926,
      "top": 927,
      "orange": 928,
      "lear": 929,
      "sell": 930,
      "stam": 931,
      "also": 932,
      "wash": 933,
      "tires": 934,
      "ird": 935,
      "mac": 936,
      "pos": 937,
      "means": 938,
      "ments": 939,
      "driver": 940,
      "plane": 941,
      "neither": 942,
      "sunday": 943,
      "solut": 944,
      "jokes": 945,
      "dollar": 946,
      "pizza": 947,
      "15": 948,
      "bro": 949,
      "dle": 950,
      "dig": 951,
      "eight": 952,
      "fit": 953,
      "far": 954,
      "fla": 955,
      "ges": 956,
      "gun": 957,
      "hood": 958,
      "pot": 959,
      "slow": 960,
      "anut": 961,
      "asked": 962,
      "goes": 963,
      "hamb": 964,
      "add": 965,
      "peanut": 966,
      "ros": 967,
      "mach": 968,
      "eam": 969,
      "lau": 970,
      "percent": 971,
      "deli": 972,
      "working": 973,
      "chea": 974,
      "paper": 975,
      "eating": 976,
      "excit": 977,
      "called": 978,
      "feeling": 979,
      "minute": 980,
      "lately": 981,
      "invitation": 982,
      "price": 983,
      "yell": 984,
      "digital": 985,
      "potato": 986,
      "hambur": 987,
      "base": 988,
      "cer": 989,
      "cros": 990,
      "dry": 991,
      "dru": 992,
      "ege": 993,
      "eves": 994,
      "gry": 995,
      "hu": 996,
      "lun": 997,
      "mot": 998,
      "mind": 999,
      "pt": 1000,
      "pes": 1001,
      "pants": 1002,
      "sand": 1003,
      "zy": 1004,
      "ins": 1005,
      "reme": 1006,
      "ask": 1007,
      "ary": 1008,
      "lifor": 1009,
      "forget": 1010,
      "till": 1011,
      "tery": 1012,
      "hold": 1013,
      "hosp": 1014,
      "nia": 1015,
      "califor": 1016,
      "pol": 1017,
      "point": 1018,
      "wake": 1019,
      "friendly": 1020,
      "nts": 1021,
      "starts": 1022,
      "exact": 1023,
      "homework": 1024,
      "divor": 1025,
      "clock": 1026,
      "cious": 1027,
      "fix": 1028,
      "number": 1029,
      "plain": 1030,
      "crazy": 1031,
      "talent": 1032,
      "college": 1033,
      "delicious": 1034,
      "baseball": 1035,
      "remember": 1036,
      "california": 1037,
      "exactly": 1038,
      "divorced": 1039,
      "fing": 1040,
      "gi": 1041,
      "grow": 1042,
      "ii": 1043,
      "io": 1044,
      "ju": 1045,
      "lt": 1046,
      "land": 1047,
      "mp": 1048,
      "open": 1049,
      "pow": 1050,
      "ran": 1051,
      "rad": 1052,
      "sk": 1053,
      "tis": 1054,
      "tried": 1055,
      "team": 1056,
      "att": 1057,
      "ont": 1058,
      "estion": 1059,
      "asking": 1060,
      "ena": 1061,
      "lier": 1062,
      "likes": 1063,
      "wich": 1064,
      "wipe": 1065,
      "adena": 1066,
      "move": 1067,
      "shot": 1068,
      "shir": 1069,
      "few": 1070,
      "seems": 1071,
      "everybody": 1072,
      "earlier": 1073,
      "schools": 1074,
      "loved": 1075,
      "mbers": 1076,
      "waiting": 1077,
      "itting": 1078,
      "shopping": 1079,
      "front": 1080,
      "question": 1081,
      "pupp": 1082,
      "neigh": 1083,
      "numbers": 1084,
      "finish": 1085,
      "market": 1086,
      "salt": 1087,
      "pasadena": 1088,
      "banan": 1089,
      "laugh": 1090,
      "potatoes": 1091,
      "sandwich": 1092,
      "power": 1093,
      "radio": 1094,
      "tissu": 1095,
      "shirt": 1096,
      "40": 1097,
      "cook": 1098,
      "father": 1099,
      "ice": 1100,
      "mid": 1101,
      "pr": 1102,
      "rid": 1103,
      "sen": 1104,
      "atur": 1105,
      "medic": 1106,
      "ash": 1107,
      "own": 1108,
      "half": 1109,
      "whatever": 1110,
      "wear": 1111,
      "sed": 1112,
      "set": 1113,
      "str": 1114,
      "ford": 1115,
      "button": 1116,
      "shar": 1117,
      "loves": 1118,
      "rather": 1119,
      "sale": 1120,
      "safe": 1121,
      "carry": 1122,
      "gree": 1123,
      "laid": 1124,
      "blow": 1125,
      "blind": 1126,
      "clear": 1127,
      "pens": 1128,
      "afford": 1129,
      "face": 1130,
      "watching": 1131,
      "hire": 1132,
      "missing": 1133,
      "nails": 1134,
      "trying": 1135,
      "actually": 1136,
      "smoking": 1137,
      "crime": 1138,
      "sleep": 1139,
      "fresh": 1140,
      "taxes": 1141,
      "guys": 1142,
      "lucky": 1143,
      "seats": 1144,
      "parents": 1145,
      "possi": 1146,
      "lunch": 1147,
      "gives": 1148,
      "middle": 1149,
      "11": 1150,
      "200": 1151,
      "98": 1152,
      "apo": 1153,
      "bar": 1154,
      "cc": 1155,
      "cart": 1156,
      "coun": 1157,
      "dre": 1158,
      "ei": 1159,
      "fl": 1160,
      "fall": 1161,
      "ful": 1162,
      "gers": 1163,
      "giz": 1164,
      "hus": 1165,
      "kitch": 1166,
      "mill": 1167,
      "pass": 1168,
      "sit": 1169,
      "sha": 1170,
      "sli": 1171,
      "sign": 1172,
      "tall": 1173,
      "tri": 1174,
      "tree": 1175,
      "throw": 1176,
      "bottom": 1177,
      "inet": 1178,
      "anim": 1179,
      "tor": 1180,
      "recor": 1181,
      "ones": 1182,
      "velo": 1183,
      "ise": 1184,
      "envelo": 1185,
      "being": 1186,
      "led": 1187,
      "golf": 1188,
      "cho": 1189,
      "stea": 1190,
      "outfit": 1191,
      "nobody": 1192,
      "pepp": 1193,
      "inking": 1194,
      "logiz": 1195,
      "yourself": 1196,
      "anymore": 1197,
      "worried": 1198,
      "promot": 1199,
      "rude": 1200,
      "build": 1201,
      "offer": 1202,
      "offic": 1203,
      "pair": 1204,
      "blinking": 1205,
      "foll": 1206,
      "raining": 1207,
      "comes": 1208,
      "coming": 1209,
      "partment": 1210,
      "glass": 1211,
      "die": 1212,
      "nosey": 1213,
      "voted": 1214,
      "singers": 1215,
      "nap": 1216,
      "speed": 1217,
      "parking": 1218,
      "hours": 1219,
      "lesson": 1220,
      "pockets": 1221,
      "hungry": 1222,
      "milk": 1223,
      "smart": 1224,
      "superbad": 1225,
      "person": 1226,
      "stamp": 1227,
      "flag": 1228,
      "drugs": 1229,
      "polite": 1230,
      "sky": 1231,
      "attend": 1232,
      "tissue": 1233,
      "apologiz": 1234,
      "either": 1235,
      "husband": 1236,
      "kitchen": 1237,
      "million": 1238,
      "trip": 1239,
      "envelope": 1240,
      "steak": 1241,
      "pepper": 1242,
      "promotion": 1243,
      "building": 1244,
      "agree": 1245,
      "bs": 1246,
      "cident": 1247,
      "dv": 1248,
      "ely": 1249,
      "fli": 1250,
      "fly": 1251,
      "fine": 1252,
      "ier": 1253,
      "iet": 1254,
      "ja": 1255,
      "lou": 1256,
      "mm": 1257,
      "mor": 1258,
      "ness": 1259,
      "pi": 1260,
      "pet": 1261,
      "ptop": 1262,
      "ug": 1263,
      "ure": 1264,
      "ught": 1265,
      "vac": 1266,
      "though": 1267,
      "iness": 1268,
      "towe": 1269,
      "toge": 1270,
      "town": 1271,
      "order": 1272,
      "head": 1273,
      "heave": 1274,
      "absolut": 1275,
      "myself": 1276,
      "irs": 1277,
      "hole": 1278,
      "anyone": 1279,
      "fell": 1280,
      "sheets": 1281,
      "worry": 1282,
      "imple": 1283,
      "tain": 1284,
      "mayor": 1285,
      "promis": 1286,
      "rub": 1287,
      "type": 1288,
      "laptop": 1289,
      "given": 1290,
      "telling": 1291,
      "accident": 1292,
      "complain": 1293,
      "penc": 1294,
      "died": 1295,
      "quit": 1296,
      "kinds": 1297,
      "fires": 1298,
      "drive": 1299,
      "brush": 1300,
      "switch": 1301,
      "cents": 1302,
      "helped": 1303,
      "speak": 1304,
      "listening": 1305,
      "election": 1306,
      "cream": 1307,
      "channe": 1308,
      "basket": 1309,
      "peanuts": 1310,
      "cheaper": 1311,
      "certain": 1312,
      "puppy": 1313,
      "possible": 1314,
      "animals": 1315,
      "dvd": 1316,
      "loud": 1317,
      "morning": 1318,
      "together": 1319,
      "heaven": 1320,
      "absolutely": 1321,
      "198": 1322,
      "apartment": 1323,
      "bir": 1324,
      "bur": 1325,
      "bother": 1326,
      "cu": 1327,
      "cha": 1328,
      "cab": 1329,
      "cur": 1330,
      "cows": 1331,
      "dy": 1332,
      "dred": 1333,
      "emp": 1334,
      "gone": 1335,
      "ker": 1336,
      "mc": 1337,
      "mi": 1338,
      "nor": 1339,
      "octo": 1340,
      "pic": 1341,
      "pood": 1342,
      "patch": 1343,
      "pets": 1344,
      "sne": 1345,
      "sco": 1346,
      "song": 1347,
      "sitting": 1348,
      "uu": 1349,
      "ws": 1350,
      "wow": 1351,
      "wall": 1352,
      "yard": 1353,
      "zing": 1354,
      "erk": 1355,
      "ouble": 1356,
      "ren": 1357,
      "rela": 1358,
      "recent": 1359,
      "ity": 1360,
      "online": 1361,
      "ings": 1362,
      "ort": 1363,
      "door": 1364,
      "beer": 1365,
      "heat": 1366,
      "sold": 1367,
      "char": 1368,
      "stars": 1369,
      "stress": 1370,
      "ries": 1371,
      "fortable": 1372,
      "liked": 1373,
      "cell": 1374,
      "houses": 1375,
      "days": 1376,
      "anyway": 1377,
      "artist": 1378,
      "takes": 1379,
      "stomach": 1380,
      "mud": 1381,
      "earth": 1382,
      "early": 1383,
      "illy": 1384,
      "buried": 1385,
      "law": 1386,
      "ched": 1387,
      "rown": 1388,
      "rained": 1389,
      "comput": 1390,
      "comfortable": 1391,
      "penny": 1392,
      "shop": 1393,
      "voting": 1394,
      "spend": 1395,
      "windo": 1396,
      "players": 1397,
      "business": 1398,
      "hurry": 1399,
      "driving": 1400,
      "fridge": 1401,
      "teacher": 1402,
      "hands": 1403,
      "doctors": 1404,
      "park": 1405,
      "smoke": 1406,
      "warm": 1407,
      "brea": 1408,
      "elect": 1409,
      "place": 1410,
      "hundred": 1411,
      "killed": 1412,
      "paying": 1413,
      "airport": 1414,
      "books": 1415,
      "instru": 1416,
      "miles": 1417,
      "interesting": 1418,
      "desk": 1419,
      "honest": 1420,
      "learn": 1421,
      "exciting": 1422,
      "hamburgers": 1423,
      "talented": 1424,
      "landed": 1425,
      "shots": 1426,
      "banana": 1427,
      "laughing": 1428,
      "throwing": 1429,
      "record": 1430,
      "vacuu": 1431,
      "birth": 1432,
      "empty": 1433,
      "score": 1434,
      "relax": 1435,
      "100": 1436,
      "140": 1437,
      "bat": 1438,
      "cy": 1439,
      "cand": 1440,
      "cti": 1441,
      "case": 1442,
      "dea": 1443,
      "fil": 1444,
      "fight": 1445,
      "gas": 1446,
      "gen": 1447,
      "gra": 1448,
      "han": 1449,
      "hor": 1450,
      "ieves": 1451,
      "lan": 1452,
      "mmer": 1453,
      "ng": 1454,
      "nch": 1455,
      "nment": 1456,
      "oba": 1457,
      "ping": 1458,
      "pink": 1459,
      "ss": 1460,
      "spa": 1461,
      "satur": 1462,
      "tit": 1463,
      "ures": 1464,
      "thieves": 1465,
      "oup": 1466,
      "inv": 1467,
      "young": 1468,
      "ans": 1469,
      "answ": 1470,
      "iting": 1471,
      "itals": 1472,
      "met": 1473,
      "ven": 1474,
      "ence": 1475,
      "belt": 1476,
      "arm": 1477,
      "arti": 1478,
      "hell": 1479,
      "gover": 1480,
      "sew": 1481,
      "chu": 1482,
      "chur": 1483,
      "lic": 1484,
      "aren": 1485,
      "wife": 1486,
      "wipes": 1487,
      "noon": 1488,
      "alone": 1489,
      "ables": 1490,
      "tiger": 1491,
      "rob": 1492,
      "thinks": 1493,
      "sometime": 1494,
      "summer": 1495,
      "math": 1496,
      "pped": 1497,
      "import": 1498,
      "carpet": 1499,
      "whenever": 1500,
      "ears": 1501,
      "letter": 1502,
      "predic": 1503,
      "assign": 1504,
      "expens": 1505,
      "tomato": 1506,
      "stains": 1507,
      "hotel": 1508,
      "smells": 1509,
      "writing": 1510,
      "vity": 1511,
      "stuff": 1512,
      "cute": 1513,
      "cuts": 1514,
      "swalk": 1515,
      "missed": 1516,
      "easier": 1517,
      "running": 1518,
      "visited": 1519,
      "dog12": 1520,
      "six": 1521,
      "solve": 1522,
      "bluedog12": 1523,
      "french": 1524,
      "funnylooking": 1525,
      "crosswalk": 1526,
      "huge": 1527,
      "hospitals": 1528,
      "finger": 1529,
      "medicine": 1530,
      "strong": 1531,
      "sharpen": 1532,
      "clearly": 1533,
      "flying": 1534,
      "jail": 1535,
      "ugly": 1536,
      "channels": 1537,
      "basketball": 1538,
      "battery": 1539,
      "gravity": 1540,
      "hang": 1541,
      "obama": 1542,
      "space": 1543,
      "saturday": 1544,
      "answer": 1545,
      "article": 1546,
      "government": 1547,
      "church": 1548,
      "important": 1549,
      "predictable": 1550,
      "assignments": 1551,
      "expensive": 1552,
      "bluedog123": 1553,
      "400": 1554,
      "85": 1555,
      "90": 1556,
      "911": 1557,
      "ald": 1558,
      "ama": 1559,
      "akes": 1560,
      "bors": 1561,
      "brown": 1562,
      "cry": 1563,
      "cong": 1564,
      "crow": 1565,
      "cast": 1566,
      "cked": 1567,
      "ding": 1568,
      "dur": 1569,
      "dive": 1570,
      "eg": 1571,
      "ext": 1572,
      "ect": 1573,
      "ems": 1574,
      "eye": 1575,
      "fle": 1576,
      "fig": 1577,
      "gam": 1578,
      "iers": 1579,
      "ipt": 1580,
      "jerk": 1581,
      "kn": 1582,
      "kin": 1583,
      "ken": 1584,
      "kno": 1585,
      "knew": 1586,
      "kers": 1587,
      "mou": 1588,
      "mit": 1589,
      "nation": 1590,
      "ninet": 1591,
      "oce": 1592,
      "pur": 1593,
      "pany": 1594,
      "pound": 1595,
      "pill": 1596,
      "pcc": 1597,
      "rb": 1598,
      "rat": 1599,
      "rush": 1600,
      "son": 1601,
      "snow": 1602,
      "sent": 1603,
      "sound": 1604,
      "scre": 1605,
      "simple": 1606,
      "tas": 1607,
      "test": 1608,
      "var": 1609,
      "wind": 1610,
      "wood": 1611,
      "third": 1612,
      "ushed": 1613,
      "usually": 1614,
      "ance": 1615,
      "rest": 1616,
      "rece": 1617,
      "reci": 1618,
      "return": 1619,
      "its": 1620,
      "meas": 1621,
      "meant": 1622,
      "metery": 1623,
      "ved": 1624,
      "orid": 1625,
      "dom": 1626,
      "doors": 1627,
      "asle": 1628,
      "ashed": 1629,
      "ense": 1630,
      "become": 1631,
      "belong": 1632,
      "owed": 1633,
      "idate": 1634,
      "ham": 1635,
      "wet": 1636,
      "weight": 1637,
      "weird": 1638,
      "chin": 1639,
      "child": 1640,
      "lie": 1641,
      "star": 1642,
      "stup": 1643,
      "stick": 1644,
      "step": 1645,
      "tic": 1646,
      "ties": 1647,
      "donald": 1648,
      "mous": 1649,
      "short": 1650,
      "cemetery": 1651,
      "unpredictable": 1652,
      "roll": 1653,
      "rock": 1654,
      "los": 1655,
      "goodness": 1656,
      "race": 1657,
      "anywhere": 1658,
      "worth": 1659,
      "seem": 1660,
      "ounces": 1661,
      "everywhere": 1662,
      "taking": 1663,
      "plus": 1664,
      "poems": 1665,
      "teen": 1666,
      "needs": 1667,
      "stole": 1668,
      "stopping": 1669,
      "stopped": 1670,
      "prove": 1671,
      "vice": 1672,
      "court": 1673,
      "green": 1674,
      "lake": 1675,
      "others": 1676,
      "women": 1677,
      "dead": 1678,
      "works": 1679,
      "pale": 1680,
      "asted": 1681,
      "tells": 1682,
      "actor": 1683,
      "blood": 1684,
      "company": 1685,
      "exam": 1686,
      "dial": 1687,
      "famous": 1688,
      "rooms": 1689,
      "spot": 1690,
      "spit": 1691,
      "wins": 1692,
      "shows": 1693,
      "quite": 1694,
      "quakes": 1695,
      "ulations": 1696,
      "brought": 1697,
      "girls": 1698,
      "stuck": 1699,
      "cares": 1700,
      "teaching": 1701,
      "turned": 1702,
      "service": 1703,
      "kidding": 1704,
      "traff": 1705,
      "hurts": 1706,
      "pull": 1707,
      "porations": 1708,
      "parties": 1709,
      "smoker": 1710,
      "enjoyed": 1711,
      "streets": 1712,
      "corner": 1713,
      "corporations": 1714,
      "diction": 1715,
      "stayed": 1716,
      "chang": 1717,
      "joking": 1718,
      "picking": 1719,
      "dollars": 1720,
      "crashed": 1721,
      "small": 1722,
      "breakfast": 1723,
      "10198": 1724,
      "wonderful": 1725,
      "appreci": 1726,
      "interested": 1727,
      "borhood": 1728,
      "drove": 1729,
      "drinking": 1730,
      "trouble": 1731,
      "selling": 1732,
      "macy": 1733,
      "solution": 1734,
      "machine": 1735,
      "excited": 1736,
      "hamburger": 1737,
      "hospital": 1738,
      "neighbors": 1739,
      "neighborhood": 1740,
      "pray": 1741,
      "dream": 1742,
      "florid": 1743,
      "follows": 1744,
      "napkin": 1745,
      "apologize": 1746,
      "towels": 1747,
      "pencils": 1748,
      "mcdonald": 1749,
      "october": 1750,
      "songs": 1751,
      "recently": 1752,
      "soldiers": 1753,
      "earthquakes": 1754,
      "computer": 1755,
      "breathe": 1756,
      "instruments": 1757,
      "vacuum": 1758,
      "candidate": 1759,
      "invite": 1760,
      "robber": 1761,
      "congrat": 1762,
      "crowd": 1763,
      "during": 1764,
      "eggs": 1765,
      "extra": 1766,
      "flew": 1767,
      "knock": 1768,
      "mouth": 1769,
      "ninety": 1770,
      "ocean": 1771,
      "receipt": 1772,
      "asleep": 1773,
      "children": 1774,
      "stupid": 1775,
      "traffic": 1776,
      "appreciate": 1777,
      "florida": 1778,
      "congratulations": 1779,
      "99": 1780,
      "ager": 1781,
      "bill": 1782,
      "burn": 1783,
      "cd": 1784,
      "cow": 1785,
      "cid": 1786,
      "cal": 1787,
      "cru": 1788,
      "dis": 1789,
      "done": 1790,
      "dres": 1791,
      "ead": 1792,
      "email": 1793,
      "fou": 1794,
      "fas": 1795,
      "fill": 1796,
      "gent": 1797,
      "hmm": 1798,
      "ip": 1799,
      "ial": 1800,
      "ica": 1801,
      "ikes": 1802,
      "mad": 1803,
      "none": 1804,
      "pra": 1805,
      "tour": 1806,
      "uce": 1807,
      "ya": 1808,
      "yikes": 1809,
      "erv": 1810,
      "thir": 1811,
      "ating": 1812,
      "ator": 1813,
      "repor": 1814,
      "meet": 1815,
      "medi": 1816,
      "veget": 1817,
      "astic": 1818,
      "bears": 1819,
      "season": 1820,
      "seven": 1821,
      "chase": 1822,
      "chilly": 1823,
      "living": 1824,
      "ste": 1825,
      "stink": 1826,
      "near": 1827,
      "along": 1828,
      "rican": 1829,
      "forty": 1830,
      "cept": 1831,
      "cans": 1832,
      "holes": 1833,
      "wants": 1834,
      "plete": 1835,
      "feed": 1836,
      "worse": 1837,
      "seeing": 1838,
      "caught": 1839,
      "impossible": 1840,
      "immedi": 1841,
      "ately": 1842,
      "pop": 1843,
      "poor": 1844,
      "poet": 1845,
      "stomac": 1846,
      "upsta": 1847,
      "upset": 1848,
      "vie": 1849,
      "reserv": 1850,
      "decid": 1851,
      "workers": 1852,
      "manager": 1853,
      "complete": 1854,
      "except": 1855,
      "glue": 1856,
      "calling": 1857,
      "faul": 1858,
      "bomb": 1859,
      "shoot": 1860,
      "voters": 1861,
      "quick": 1862,
      "quiet": 1863,
      "player": 1864,
      "hurrican": 1865,
      "write": 1866,
      "sort": 1867,
      "ideas": 1868,
      "plans": 1869,
      "miss": 1870,
      "nament": 1871,
      "pub": 1872,
      "conver": 1873,
      "grand": 1874,
      "married": 1875,
      "salad": 1876,
      "sooner": 1877,
      "cats": 1878,
      "crash": 1879,
      "pasta": 1880,
      "instead": 1881,
      "apples": 1882,
      "born": 1883,
      "deser": 1884,
      "drops": 1885,
      "floor": 1886,
      "learned": 1887,
      "stamps": 1888,
      "broke": 1889,
      "cheap": 1890,
      "fingers": 1891,
      "riding": 1892,
      "officer": 1893,
      "flip": 1894,
      "ctice": 1895,
      "death": 1896,
      "chucks": 1897,
      "teenth": 1898,
      "dressing": 1899,
      "foul": 1900,
      "faster": 1901,
      "practice": 1902,
      "tournament": 1903,
      "thirteenth": 1904,
      "vegetables": 1905,
      "immediately": 1906,
      "stomacha": 1907,
      "upstairs": 1908,
      "decided": 1909,
      "fault": 1910,
      "..": 1911,
      "18": 1912,
      "300": 1913,
      "42": 1914,
      "45": 1915,
      "60": 1916,
      "65": 1917,
      "75": 1918,
      "80": 1919,
      "800": 1920,
      "ap": 1921,
      "aid": 1922,
      "bj": 1923,
      "bow": 1924,
      "bra": 1925,
      "cus": 1926,
      "cli": 1927,
      "cul": 1928,
      "cable": 1929,
      "da": 1930,
      "dar": 1931,
      "dist": 1932,
      "duce": 1933,
      "dating": 1934,
      "eth": 1935,
      "ech": 1936,
      "ezing": 1937,
      "fact": 1938,
      "flu": 1939,
      "flow": 1940,
      "gin": 1941,
      "gard": 1942,
      "glove": 1943,
      "hy": 1944,
      "hat": 1945,
      "hind": 1946,
      "hil": 1947,
      "iled": 1948,
      "jar": 1949,
      "jac": 1950,
      "lb": 1951,
      "lat": 1952,
      "lor": 1953,
      "lone": 1954,
      "lide": 1955,
      "mas": 1956,
      "moun": 1957,
      "match": 1958,
      "non": 1959,
      "nad": 1960,
      "natur": 1961,
      "os": 1962,
      "oint": 1963,
      "occ": 1964,
      "pc": 1965,
      "pin": 1966,
      "pant": 1967,
      "pun": 1968,
      "pour": 1969,
      "pend": 1970,
      "pim": 1971,
      "ption": 1972,
      "pushed": 1973,
      "ral": 1974,
      "rate": 1975,
      "rist": 1976,
      "san": 1977,
      "sis": 1978,
      "sid": 1979,
      "sink": 1980,
      "send": 1981,
      "sight": 1982,
      "ssing": 1983,
      "scr": 1984,
      "scu": 1985,
      "soup": 1986,
      "slide": 1987,
      "tough": 1988,
      "tress": 1989,
      "tasted": 1990,
      "ual": 1991,
      "ulo": 1992,
      "uate": 1993,
      "ude": 1994,
      "ument": 1995,
      "vo": 1996,
      "xur": 1997,
      "ys": 1998,
      "yan": 1999,
      "yor": 2000,
      "ze": 2001,
      "zz": 2002,
      "zen": 2003,
      "thre": 2004,
      "thri": 2005,
      "usual": 2006,
      "ined": 2007,
      "inju": 2008,
      "ats": 2009,
      "atic": 2010,
      "anish": 2011,
      "toast": 2012,
      "tonight": 2013,
      "remind": 2014,
      "recy": 2015,
      "itive": 2016,
      "ons": 2017,
      "onto": 2018,
      "whe": 2019,
      "med": 2020,
      "metal": 2021,
      "veter": 2022,
      "vent": 2023,
      "iss": 2024,
      "ision": 2025,
      "dome": 2026,
      "dozen": 2027,
      "ased": 2028,
      "enti": 2029,
      "bear": 2030,
      "beard": 2031,
      "begin": 2032,
      "behind": 2033,
      "army": 2034,
      "arious": 2035,
      "lea": 2036,
      "lead": 2037,
      "least": 2038,
      "owned": 2039,
      "hair": 2040,
      "hawa": 2041,
      "kees": 2042,
      "keys": 2043,
      "soft": 2044,
      "wel": 2045,
      "ween": 2046,
      "sel": 2047,
      "section": 2048,
      "ches": 2049,
      "christ": 2050,
      "chased": 2051,
      "lips": 2052,
      "licks": 2053,
      "limit": 2054,
      "often": 2055,
      "stro": 2056,
      "stra": 2057,
      "state": 2058,
      "allowed": 2059,
      "vers": 2060,
      "ric": 2061,
      "ripe": 2062,
      "washed": 2063,
      "forgot": 2064,
      "tip": 2065,
      "tired": 2066,
      "ada": 2067,
      "ades": 2068,
      "adcast": 2069,
      "aduate": 2070,
      "mother": 2071,
      "mocr": 2072,
      "antly": 2073,
      "shut": 2074,
      "canada": 2075,
      "unit": 2076,
      "ode": 2077,
      "notic": 2078,
      "cop": 2079,
      "cover": 2080,
      "color": 2081,
      "loads": 2082,
      "somewhere": 2083,
      "somebody": 2084,
      "iron": 2085,
      "hol": 2086,
      "hoping": 2087,
      "thern": 2088,
      "ife": 2089,
      "sur": 2090,
      "subs": 2091,
      "subj": 2092,
      "rais": 2093,
      "main": 2094,
      "male": 2095,
      "making": 2096,
      "sheet": 2097,
      "niest": 2098,
      "pples": 2099,
      "eapples": 2100,
      "worst": 2101,
      "causes": 2102,
      "tag": 2103,
      "tains": 2104,
      "ples": 2105,
      "plac": 2106,
      "plants": 2107,
      "poke": 2108,
      "teeth": 2109,
      "stor": 2110,
      "stove": 2111,
      "stock": 2112,
      "produce": 2113,
      "grees": 2114,
      "amer": 2115,
      "ards": 2116,
      "ruth": 2117,
      "types": 2118,
      "bacon": 2119,
      "bulb": 2120,
      "joke": 2121,
      "ically": 2122,
      "iculo": 2123,
      "deep": 2124,
      "debra": 2125,
      "democr": 2126,
      "degrees": 2127,
      "between": 2128,
      "greatest": 2129,
      "checked": 2130,
      "waist": 2131,
      "reading": 2132,
      "minals": 2133,
      "atching": 2134,
      "funniest": 2135,
      "pain": 2136,
      "pages": 2137,
      "blows": 2138,
      "blades": 2139,
      "foot": 2140,
      "eats": 2141,
      "common": 2142,
      "commer": 2143,
      "prepare": 2144,
      "explain": 2145,
      "homeless": 2146,
      "diet": 2147,
      "mostly": 2148,
      "happens": 2149,
      "boiled": 2150,
      "shoe": 2151,
      "evening": 2152,
      "cloth": 2153,
      "wning": 2154,
      "votes": 2155,
      "angeles": 2156,
      "mates": 2157,
      "mated": 2158,
      "mattress": 2159,
      "spanish": 2160,
      "showed": 2161,
      "showers": 2162,
      "cleaner": 2163,
      "cleanup": 2164,
      "ular": 2165,
      "cial": 2166,
      "cials": 2167,
      "playing": 2168,
      "played": 2169,
      "buses": 2170,
      "difference": 2171,
      "planning": 2172,
      "swine": 2173,
      "swiss": 2174,
      "teachers": 2175,
      "standing": 2176,
      "classroom": 2177,
      "classmates": 2178,
      "speech": 2179,
      "special": 2180,
      "handle": 2181,
      "trail": 2182,
      "warmer": 2183,
      "luxur": 2184,
      "sidewalk": 2185,
      "truth": 2186,
      "trucks": 2187,
      "cond": 2188,
      "cont": 2189,
      "monument": 2190,
      "invited": 2191,
      "invitations": 2192,
      "against": 2193,
      "tickets": 2194,
      "saved": 2195,
      "gray": 2196,
      "ground": 2197,
      "graduate": 2198,
      "cremated": 2199,
      "cription": 2200,
      "criminals": 2201,
      "freeways": 2202,
      "drawer": 2203,
      "drawing": 2204,
      "mention": 2205,
      "killing": 2206,
      "loosen": 2207,
      "sleeves": 2208,
      "painting": 2209,
      "boyfriend": 2210,
      "bitter": 2211,
      "ffs": 2212,
      "berries": 2213,
      "bandaid": 2214,
      "supermarket": 2215,
      "bases": 2216,
      "collision": 2217,
      "appoint": 2218,
      "tub": 2219,
      "tures": 2220,
      "seriously": 2221,
      "months": 2222,
      "fruits": 2223,
      "boring": 2224,
      "drop": 2225,
      "flossing": 2226,
      "trust": 2227,
      "positive": 2228,
      "drivers": 2229,
      "broadcast": 2230,
      "flags": 2231,
      "address": 2232,
      "crossing": 2233,
      "dryer": 2234,
      "human": 2235,
      "random": 2236,
      "bananas": 2237,
      "sandwiches": 2238,
      "cooking": 2239,
      "ridiculo": 2240,
      "sense": 2241,
      "medication": 2242,
      "strange": 2243,
      "sharp": 2244,
      "sleepy": 2245,
      "bark": 2246,
      "carts": 2247,
      "counter": 2248,
      "drew": 2249,
      "flat": 2250,
      "slip": 2251,
      "chop": 2252,
      "offered": 2253,
      "glasses": 2254,
      "speeding": 2255,
      "lessons": 2256,
      "personal": 2257,
      "apologized": 2258,
      "iety": 2259,
      "pie": 2260,
      "promises": 2261,
      "certainly": 2262,
      "burger": 2263,
      "cuffs": 2264,
      "chain": 2265,
      "chairs": 2266,
      "cabin": 2267,
      "cabinet": 2268,
      "curse": 2269,
      "pictures": 2270,
      "poodle": 2271,
      "poodles": 2272,
      "sneak": 2273,
      "sneezing": 2274,
      "wallet": 2275,
      "heated": 2276,
      "artists": 2277,
      "window": 2278,
      "windows": 2279,
      "elected": 2280,
      "electric": 2281,
      "honestly": 2282,
      "birthday": 2283,
      "files": 2284,
      "fighter": 2285,
      "horrible": 2286,
      "langu": 2287,
      "title": 2288,
      "sewing": 2289,
      "license": 2290,
      "amazing": 2291,
      "games": 2292,
      "jerks": 2293,
      "knife": 2294,
      "screen": 2295,
      "taste": 2296,
      "variety": 2297,
      "woods": 2298,
      "measures": 2299,
      "belongings": 2300,
      "chinese": 2301,
      "sticks": 2302,
      "actors": 2303,
      "example": 2304,
      "dictionary": 2305,
      "changing": 2306,
      "crowded": 2307,
      "calcul": 2308,
      "gently": 2309,
      "yawning": 2310,
      "nearby": 2311,
      "popular": 2312,
      "quickly": 2313,
      "hurricanes": 2314,
      "converter": 2315,
      "deserved": 2316,
      "climb": 2317,
      "dark": 2318,
      "distance": 2319,
      "hates": 2320,
      "hilarious": 2321,
      "jacket": 2322,
      "lonely": 2323,
      "mountains": 2324,
      "nader": 2325,
      "natural": 2326,
      "pineapples": 2327,
      "punched": 2328,
      "pimples": 2329,
      "ralph": 2330,
      "sank": 2331,
      "sister": 2332,
      "scratching": 2333,
      "scuba": 2334,
      "yankees": 2335,
      "york": 2336,
      "threat": 2337,
      "thrift": 2338,
      "injured": 2339,
      "recycle": 2340,
      "veterans": 2341,
      "hawaii": 2342,
      "christmas": 2343,
      "stroke": 2344,
      "straight": 2345,
      "noticed": 2346,
      "subject": 2347,
      "debrah": 2348,
      "commercials": 2349,
      "luxury": 2350,
      "appointment": 2351,
      "broadcasting": 2352,
      "ridiculous": 2353,
      "alice": 2354,
      "borrow": 2355,
      "bird": 2356,
      "cas": 2357,
      "cuse": 2358,
      "den": 2359,
      "dest": 2360,
      "ddle": 2361,
      "emer": 2362,
      "hp": 2363,
      "jor": 2364,
      "jess": 2365,
      "ks": 2366,
      "lad": 2367,
      "lfer": 2368,
      "mart": 2369,
      "mist": 2370,
      "oil": 2371,
      "pbs": 2372,
      "pimple": 2373,
      "ring": 2374,
      "rab": 2375,
      "ses": 2376,
      "sad": 2377,
      "sant": 2378,
      "stoo": 2379,
      "shaving": 2380,
      "silly": 2381,
      "tan": 2382,
      "twi": 2383,
      "vate": 2384,
      "yed": 2385,
      "eral": 2386,
      "thy": 2387,
      "anges": 2388,
      "angry": 2389,
      "toes": 2390,
      "rent": 2391,
      "remot": 2392,
      "itic": 2393,
      "ished": 2394,
      "oranges": 2395,
      "enna": 2396,
      "argu": 2397,
      "hey": 2398,
      "heal": 2399,
      "owcas": 2400,
      "golfer": 2401,
      "sofa": 2402,
      "libr": 2403,
      "stri": 2404,
      "stun": 2405,
      "noise": 2406,
      "alarm": 2407,
      "donate": 2408,
      "antenna": 2409,
      "ters": 2410,
      "cancer": 2411,
      "undry": 2412,
      "unlucky": 2413,
      "royed": 2414,
      "cops": 2415,
      "yours": 2416,
      "hob": 2417,
      "homes": 2418,
      "suck": 2419,
      "sucks": 2420,
      "supers": 2421,
      "maga": 2422,
      "major": 2423,
      "felt": 2424,
      "female": 2425,
      "saving": 2426,
      "cap": 2427,
      "plastic": 2428,
      "carton": 2429,
      "mule": 2430,
      "rules": 2431,
      "typing": 2432,
      "bag": 2433,
      "babe": 2434,
      "laundry": 2435,
      "perfu": 2436,
      "defin": 2437,
      "cheat": 2438,
      "chemist": 2439,
      "funeral": 2440,
      "packs": 2441,
      "itely": 2442,
      "hasn": 2443,
      "prefer": 2444,
      "reele": 2445,
      "hopefull": 2446,
      "excuse": 2447,
      "jobs": 2448,
      "boss": 2449,
      "closer": 2450,
      "germs": 2451,
      "bye": 2452,
      "bush": 2453,
      "nights": 2454,
      "ballot": 2455,
      "afternoon": 2456,
      "hike": 2457,
      "finding": 2458,
      "careful": 2459,
      "puddle": 2460,
      "warned": 2461,
      "colder": 2462,
      "group": 2463,
      "finally": 2464,
      "finished": 2465,
      "changes": 2466,
      "prices": 2467,
      "private": 2468,
      "salads": 2469,
      "fishing": 2470,
      "sleeve": 2471,
      "fireman": 2472,
      "tens": 2473,
      "seatbelt": 2474,
      "cards": 2475,
      "bank": 2476,
      "honk": 2477,
      "trade": 2478,
      "seller": 2479,
      "brother": 2480,
      "guns": 2481,
      "drug": 2482,
      "politic": 2483,
      "puppies": 2484,
      "wearing": 2485,
      "sleeping": 2486,
      "country": 2487,
      "attended": 2488,
      "pilot": 2489,
      "promise": 2490,
      "accidents": 2491,
      "pencil": 2492,
      "brushing": 2493,
      "gency": 2494,
      "hello": 2495,
      "sharpener": 2496,
      "figure": 2497,
      "pillows": 2498,
      "pillowcas": 2499,
      "burned": 2500,
      "cruise": 2501,
      "reporters": 2502,
      "poetry": 2503,
      "view": 2504,
      "reservation": 2505,
      "completely": 2506,
      "public": 2507,
      "grandma": 2508,
      "stomachache": 2509,
      "custom": 2510,
      "birds": 2511,
      "destroyed": 2512,
      "emergency": 2513,
      "jessica": 2514,
      "lady": 2515,
      "rabbit": 2516,
      "santa": 2517,
      "stood": 2518,
      "twice": 2519,
      "remote": 2520,
      "library": 2521,
      "stunk": 2522,
      "supersmart": 2523,
      "magaz": 2524,
      "perfume": 2525,
      "definitely": 2526,
      "chemistry": 2527,
      "hopefully": 2528,
      "pillowcases": 2529,
      "!..": 2530,
      ".?": 2531,
      "01": 2532,
      "13": 2533,
      "120": 2534,
      "22": 2535,
      "24": 2536,
      "25": 2537,
      "3story": 2538,
      "44": 2539,
      "600": 2540,
      "70": 2541,
      "87": 2542,
      "815": 2543,
      "915": 2544,
      "au": 2545,
      "aw": 2546,
      "ais": 2547,
      "ali": 2548,
      "aver": 2549,
      "aking": 2550,
      "apri": 2551,
      "alive": 2552,
      "apers": 2553,
      "ages": 2554,
      "awake": 2555,
      "aled": 2556,
      "ahead": 2557,
      "avo": 2558,
      "aches": 2559,
      "bes": 2560,
      "bis": 2561,
      "bay": 2562,
      "boo": 2563,
      "bly": 2564,
      "bil": 2565,
      "bite": 2566,
      "cone": 2567,
      "cere": 2568,
      "cet": 2569,
      "cad": 2570,
      "cup": 2571,
      "cil": 2572,
      "coff": 2573,
      "cist": 2574,
      "cough": 2575,
      "cred": 2576,
      "cash": 2577,
      "cise": 2578,
      "crub": 2579,
      "code": 2580,
      "ds": 2581,
      "dut": 2582,
      "dge": 2583,
      "dam": 2584,
      "drow": 2585,
      "dgers": 2586,
      "ddy": 2587,
      "double": 2588,
      "drown": 2589,
      "dama": 2590,
      "dden": 2591,
      "ee": 2592,
      "ev": 2593,
      "ey": 2594,
      "ees": 2595,
      "eld": 2596,
      "ebook": 2597,
      "ebay": 2598,
      "fy": 2599,
      "fto": 2600,
      "fur": 2601,
      "fac": 2602,
      "flight": 2603,
      "fans": 2604,
      "gan": 2605,
      "gis": 2606,
      "gar": 2607,
      "ged": 2608,
      "gust": 2609,
      "gic": 2610,
      "gist": 2611,
      "gine": 2612,
      "ghed": 2613,
      "gloves": 2614,
      "har": 2615,
      "hitting": 2616,
      "harm": 2617,
      "iq": 2618,
      "ile": 2619,
      "igh": 2620,
      "ican": 2621,
      "ico": 2622,
      "ient": 2623,
      "ima": 2624,
      "ilet": 2625,
      "ials": 2626,
      "ips": 2627,
      "itor": 2628,
      "jan": 2629,
      "jay": 2630,
      "jet": 2631,
      "jam": 2632,
      "jets": 2633,
      "kne": 2634,
      "ler": 2635,
      "ling": 2636,
      "las": 2637,
      "lar": 2638,
      "lay": 2639,
      "lab": 2640,
      "lend": 2641,
      "lors": 2642,
      "lence": 2643,
      "mall": 2644,
      "mal": 2645,
      "mly": 2646,
      "mir": 2647,
      "mur": 2648,
      "mper": 2649,
      "mood": 2650,
      "mps": 2651,
      "oon": 2652,
      "ome": 2653,
      "opp": 2654,
      "olence": 2655,
      "pou": 2656,
      "pat": 2657,
      "pto": 2658,
      "pon": 2659,
      "ped": 2660,
      "phot": 2661,
      "rer": 2662,
      "rot": 2663,
      "rin": 2664,
      "ror": 2665,
      "rout": 2666,
      "rust": 2667,
      "round": 2668,
      "ration": 2669,
      "rhy": 2670,
      "sy": 2671,
      "sus": 2672,
      "sou": 2673,
      "sin": 2674,
      "swe": 2675,
      "shave": 2676,
      "swi": 2677,
      "swell": 2678,
      "sil": 2679,
      "site": 2680,
      "squ": 2681,
      "skill": 2682,
      "snor": 2683,
      "spoke": 2684,
      "scrub": 2685,
      "tot": 2686,
      "tre": 2687,
      "tay": 2688,
      "twent": 2689,
      "tables": 2690,
      "twel": 2691,
      "ub": 2692,
      "ues": 2693,
      "ued": 2694,
      "uck": 2695,
      "uho": 2696,
      "ugs": 2697,
      "ured": 2698,
      "uary": 2699,
      "ucet": 2700,
      "val": 2701,
      "vive": 2702,
      "vous": 2703,
      "vator": 2704,
      "wat": 2705,
      "ware": 2706,
      "wal": 2707,
      "wound": 2708,
      "wards": 2709,
      "xed": 2710,
      "xico": 2711,
      "yon": 2712,
      "yman": 2713,
      "yfive": 2714,
      "yuck": 2715,
      "zer": 2716,
      "zoo": 2717,
      "zip": 2718,
      "zards": 2719,
      "ering": 2720,
      "erry": 2721,
      "erically": 2722,
      "ercise": 2723,
      "ergic": 2724,
      "thin": 2725,
      "thand": 2726,
      "thous": 2727,
      "thirty": 2728,
      "usc": 2729,
      "usin": 2730,
      "usage": 2731,
      "otect": 2732,
      "init": 2733,
      "ines": 2734,
      "ining": 2735,
      "inch": 2736,
      "inal": 2737,
      "insu": 2738,
      "inser": 2739,
      "inspe": 2740,
      "inside": 2741,
      "incre": 2742,
      "incomplete": 2743,
      "invent": 2744,
      "inued": 2745,
      "atm": 2746,
      "aters": 2747,
      "ators": 2748,
      "ature": 2749,
      "atures": 2750,
      "thest": 2751,
      "theater": 2752,
      "theaters": 2753,
      "anit": 2754,
      "anni": 2755,
      "toned": 2756,
      "toss": 2757,
      "toons": 2758,
      "toilet": 2759,
      "reli": 2760,
      "reuse": 2761,
      "rect": 2762,
      "report": 2763,
      "retires": 2764,
      "remove": 2765,
      "repair": 2766,
      "replace": 2767,
      "revie": 2768,
      "repub": 2769,
      "regard": 2770,
      "reheated": 2771,
      "reali": 2772,
      "regist": 2773,
      "ition": 2774,
      "itched": 2775,
      "itude": 2776,
      "ona": 2777,
      "oni": 2778,
      "ony": 2779,
      "onge": 2780,
      "lls": 2781,
      "llut": 2782,
      "esday": 2783,
      "esome": 2784,
      "ington": 2785,
      "meat": 2786,
      "meow": 2787,
      "meal": 2788,
      "melt": 2789,
      "mexico": 2790,
      "vegas": 2791,
      "island": 2792,
      "isons": 2793,
      "orter": 2794,
      "orig": 2795,
      "orkers": 2796,
      "organ": 2797,
      "thatcigarettes": 2798,
      "dodgers": 2799,
      "asso": 2800,
      "asant": 2801,
      "asion": 2802,
      "ening": 2803,
      "enter": 2804,
      "enger": 2805,
      "bell": 2806,
      "arant": 2807,
      "arrow": 2808,
      "ariz": 2809,
      "arms": 2810,
      "aries": 2811,
      "heart": 2812,
      "height": 2813,
      "heals": 2814,
      "leather": 2815,
      "legs": 2816,
      "leph": 2817,
      "lemon": 2818,
      "leage": 2819,
      "lefto": 2820,
      "legis": 2821,
      "ays": 2822,
      "ides": 2823,
      "identi": 2824,
      "idays": 2825,
      "goats": 2826,
      "kept": 2827,
      "socks": 2828,
      "soap": 2829,
      "weak": 2830,
      "weigh": 2831,
      "seas": 2832,
      "secur": 2833,
      "second": 2834,
      "sealed": 2835,
      "chips": 2836,
      "cherry": 2837,
      "liar": 2838,
      "licans": 2839,
      "lizards": 2840,
      "lded": 2841,
      "andy": 2842,
      "eding": 2843,
      "sters": 2844,
      "steam": 2845,
      "stantly": 2846,
      "sterically": 2847,
      "allow": 2848,
      "allation": 2849,
      "alley": 2850,
      "allergic": 2851,
      "uturn": 2852,
      "areat": 2853,
      "wild": 2854,
      "wiped": 2855,
      "outer": 2856,
      "outfi": 2857,
      "net": 2858,
      "ghthand": 2859,
      "oops": 2860,
      "onepound": 2861,
      "verware": 2862,
      "nope": 2863,
      "altit": 2864,
      "river": 2865,
      "rice": 2866,
      "rious": 2867,
      "riage": 2868,
      "righthand": 2869,
      "waste": 2870,
      "wasting": 2871,
      "force": 2872,
      "forgetting": 2873,
      "fortu": 2874,
      "tie": 2875,
      "tight": 2876,
      "tiest": 2877,
      "tivit": 2878,
      "buttoned": 2879,
      "advent": 2880,
      "pear": 2881,
      "peare": 2882,
      "pect": 2883,
      "peele": 2884,
      "pepto": 2885,
      "mol": 2886,
      "mouse": 2887,
      "shook": 2888,
      "shine": 2889,
      "shined": 2890,
      "shorter": 2891,
      "celed": 2892,
      "celer": 2893,
      "lying": 2894,
      "canyon": 2895,
      "canceled": 2896,
      "unpl": 2897,
      "unable": 2898,
      "unbeli": 2899,
      "unhappy": 2900,
      "unless": 2901,
      "unfriendly": 2902,
      "unsafe": 2903,
      "uncertain": 2904,
      "uncomfortable": 2905,
      "units": 2906,
      "unbuttoned": 2907,
      "rose": 2908,
      "road": 2909,
      "roads": 2910,
      "rols": 2911,
      "roasted": 2912,
      "rods": 2913,
      "rosters": 2914,
      "odd": 2915,
      "odors": 2916,
      "notebook": 2917,
      "coat": 2918,
      "colate": 2919,
      "cousin": 2920,
      "lock": 2921,
      "ckle": 2922,
      "dayyear": 2923,
      "goodsmell": 2924,
      "goodlooking": 2925,
      "goodbye": 2926,
      "withdraw": 2927,
      "known": 2928,
      "suit": 2929,
      "suction": 2930,
      "sucked": 2931,
      "suits": 2932,
      "sudden": 2933,
      "sugar": 2934,
      "enty": 2935,
      "pleasant": 2936,
      "raw": 2937,
      "raid": 2938,
      "raise": 2939,
      "racist": 2940,
      "makers": 2941,
      "features": 2942,
      "shelf": 2943,
      "shells": 2944,
      "ppers": 2945,
      "safer": 2946,
      "saves": 2947,
      "sausage": 2948,
      "word": 2949,
      "ends": 2950,
      "ended": 2951,
      "cain": 2952,
      "causing": 2953,
      "camp": 2954,
      "improve": 2955,
      "tape": 2956,
      "taught": 2957,
      "taken": 2958,
      "plate": 2959,
      "plode": 2960,
      "plugs": 2961,
      "plenty": 2962,
      "ateur": 2963,
      "poker": 2964,
      "pollut": 2965,
      "text": 2966,
      "tears": 2967,
      "temper": 2968,
      "teleph": 2969,
      "carries": 2970,
      "carrot": 2971,
      "cartoons": 2972,
      "herself": 2973,
      "stone": 2974,
      "stories": 2975,
      "proper": 2976,
      "proces": 2977,
      "victo": 2978,
      "victi": 2979,
      "violence": 2980,
      "earplugs": 2981,
      "amins": 2982,
      "amateur": 2983,
      "gotten": 2984,
      "illac": 2985,
      "bleeding": 2986,
      "ruin": 2987,
      "ruined": 2988,
      "bait": 2989,
      "bags": 2990,
      "bug": 2991,
      "bull": 2992,
      "bugs": 2993,
      "bucket": 2994,
      "bucks": 2995,
      "bump": 2996,
      "bumps": 2997,
      "buckle": 2998,
      "elastic": 2999,
      "elbow": 3000,
      "elchairs": 3001,
      "lovely": 3002,
      "events": 3003,
      "lawn": 3004,
      "joining": 3005,
      "lettu": 3006,
      "permit": 3007,
      "themsel": 3008,
      "respon": 3009,
      "respect": 3010,
      "woke": 3011,
      "deals": 3012,
      "debit": 3013,
      "degree": 3014,
      "department": 3015,
      "depend": 3016,
      "offs": 3017,
      "cheer": 3018,
      "cheater": 3019,
      "paid": 3020,
      "pack": 3021,
      "painter": 3022,
      "papers": 3023,
      "teller": 3024,
      "action": 3025,
      "activit": 3026,
      "bling": 3027,
      "blade": 3028,
      "clears": 3029,
      "folded": 3030,
      "rainstor": 3031,
      "hassle": 3032,
      "gue": 3033,
      "guard": 3034,
      "guarant": 3035,
      "puts": 3036,
      "putt": 3037,
      "yearly": 3038,
      "excell": 3039,
      "exercise": 3040,
      "explode": 3041,
      "parts": 3042,
      "tomatic": 3043,
      "buys": 3044,
      "buyer": 3045,
      "badly": 3046,
      "longer": 3047,
      "forecast": 3048,
      "afraid": 3049,
      "kespeare": 3050,
      "calls": 3051,
      "dives": 3052,
      "diapers": 3053,
      "fair": 3054,
      "faucet": 3055,
      "boil": 3056,
      "mental": 3057,
      "shoppers": 3058,
      "bigger": 3059,
      "tvs": 3060,
      "weatherman": 3061,
      "housekeep": 3062,
      "voter": 3063,
      "prettiest": 3064,
      "gery": 3065,
      "spent": 3066,
      "sprink": 3067,
      "sport": 3068,
      "sponge": 3069,
      "winning": 3070,
      "cleaning": 3071,
      "backpack": 3072,
      "hotter": 3073,
      "believes": 3074,
      "smelled": 3075,
      "overseas": 3076,
      "intend": 3077,
      "intense": 3078,
      "balloon": 3079,
      "single": 3080,
      "babies": 3081,
      "dries": 3082,
      "dried": 3083,
      "drives": 3084,
      "dripping": 3085,
      "phant": 3086,
      "phony": 3087,
      "newspaper": 3088,
      "newspapers": 3089,
      "afterwards": 3090,
      "brand": 3091,
      "brushed": 3092,
      "firmly": 3093,
      "cles": 3094,
      "clerk": 3095,
      "club": 3096,
      "cities": 3097,
      "hiking": 3098,
      "vitamins": 3099,
      "firstclass": 3100,
      "planet": 3101,
      "planned": 3102,
      "differently": 3103,
      "restaurants": 3104,
      "nervous": 3105,
      "swam": 3106,
      "switched": 3107,
      "stops": 3108,
      "mistake": 3109,
      "downtown": 3110,
      "guessing": 3111,
      "helps": 3112,
      "navel": 3113,
      "watered": 3114,
      "stands": 3115,
      "thingsnot": 3116,
      "happyness": 3117,
      "actress": 3118,
      "classes": 3119,
      "lasts": 3120,
      "serve": 3121,
      "served": 3122,
      "speaking": 3123,
      "handyman": 3124,
      "dining": 3125,
      "easter": 3126,
      "ization": 3127,
      "visor": 3128,
      "visitor": 3129,
      "dentist": 3130,
      "puff": 3131,
      "parked": 3132,
      "parade": 3133,
      "smokers": 3134,
      "warhol": 3135,
      "gained": 3136,
      "closed": 3137,
      "enjoying": 3138,
      "lume": 3139,
      "mustard": 3140,
      "truck": 3141,
      "weekends": 3142,
      "cones": 3143,
      "concre": 3144,
      "consid": 3145,
      "constantly": 3146,
      "invites": 3147,
      "inviting": 3148,
      "eleven": 3149,
      "elevator": 3150,
      "elephant": 3151,
      "lighters": 3152,
      "lifeguard": 3153,
      "visiting": 3154,
      "correct": 3155,
      "drag": 3156,
      "fastest": 3157,
      "fastfood": 3158,
      "grass": 3159,
      "grade": 3160,
      "walking": 3161,
      "leftturn": 3162,
      "stays": 3163,
      "cribe": 3164,
      "cribed": 3165,
      "final": 3166,
      "freezer": 3167,
      "march": 3168,
      "marks": 3169,
      "marriage": 3170,
      "intersection": 3171,
      "internet": 3172,
      "chance": 3173,
      "chances": 3174,
      "bathrooms": 3175,
      "20foot": 3176,
      "siren": 3177,
      "sibil": 3178,
      "salary": 3179,
      "sunny": 3180,
      "ctions": 3181,
      "fourth": 3182,
      "pickles": 3183,
      "perfectly": 3184,
      "catches": 3185,
      "hunch": 3186,
      "killer": 3187,
      "muscles": 3188,
      "payment": 3189,
      "payments": 3190,
      "checkout": 3191,
      "painted": 3192,
      "paintings": 3193,
      "shoesthey": 3194,
      "bites": 3195,
      "blame": 3196,
      "passed": 3197,
      "instance": 3198,
      "instantly": 3199,
      "installation": 3200,
      "highway": 3201,
      "highways": 3202,
      "traveling": 3203,
      "prescription": 3204,
      "smile": 3205,
      "supervisor": 3206,
      "taxi": 3207,
      "babysit": 3208,
      "breaks": 3209,
      "musical": 3210,
      "1015": 3211,
      "based": 3212,
      "basically": 3213,
      "crack": 3214,
      "cracks": 3215,
      "daddy": 3216,
      "butterfli": 3217,
      "fireplac": 3218,
      "firebug": 3219,
      "brings": 3220,
      "tutor": 3221,
      "tuesday": 3222,
      "throughout": 3223,
      "beds": 3224,
      "bedrooms": 3225,
      "bedbugs": 3226,
      "mailing": 3227,
      "monthly": 3228,
      "monthdayyear": 3229,
      "interests": 3230,
      "1215": 3231,
      "1287": 3232,
      "describe": 3233,
      "drinks": 3234,
      "float": 3235,
      "floors": 3236,
      "floss": 3237,
      "hitter": 3238,
      "honor": 3239,
      "honda": 3240,
      "trash": 3241,
      "learning": 3242,
      "washington": 3243,
      "macs": 3244,
      "broken": 3245,
      "slowing": 3246,
      "slowed": 3247,
      "slowest": 3248,
      "adding": 3249,
      "added": 3250,
      "laughed": 3251,
      "feelings": 3252,
      "yells": 3253,
      "yelling": 3254,
      "yellow": 3255,
      "yelled": 3256,
      "cross": 3257,
      "lungs": 3258,
      "holding": 3259,
      "points": 3260,
      "pointless": 3261,
      "june": 3262,
      "juice": 3263,
      "judy": 3264,
      "judge": 3265,
      "rance": 3266,
      "skin": 3267,
      "attitude": 3268,
      "moved": 3269,
      "questions": 3270,
      "markets": 3271,
      "salted": 3272,
      "radios": 3273,
      "tissues": 3274,
      "shirts": 3275,
      "cooks": 3276,
      "protect": 3277,
      "prisons": 3278,
      "sensit": 3279,
      "ashes": 3280,
      "possibly": 3281,
      "2003": 3282,
      "barking": 3283,
      "council": 3284,
      "falling": 3285,
      "passes": 3286,
      "passenger": 3287,
      "share": 3288,
      "shake": 3289,
      "shaver": 3290,
      "shaken": 3291,
      "shakespeare": 3292,
      "slick": 3293,
      "slips": 3294,
      "sliced": 3295,
      "signal": 3296,
      "recorder": 3297,
      "golfers": 3298,
      "chore": 3299,
      "chores": 3300,
      "chocolate": 3301,
      "offering": 3302,
      "officers": 3303,
      "officials": 3304,
      "follow": 3305,
      "followed": 3306,
      "attending": 3307,
      "pepperoni": 3308,
      "flipping": 3309,
      "jazz": 3310,
      "mming": 3311,
      "mmddy": 3312,
      "pipe": 3313,
      "ughter": 3314,
      "towel": 3315,
      "ordered": 3316,
      "promised": 3317,
      "rubber": 3318,
      "complaining": 3319,
      "complained": 3320,
      "complainers": 3321,
      "switching": 3322,
      "speaks": 3323,
      "speaker": 3324,
      "channel": 3325,
      "1987": 3326,
      "burst": 3327,
      "burnt": 3328,
      "bothering": 3329,
      "current": 3330,
      "dying": 3331,
      "mccain": 3332,
      "mixed": 3333,
      "mileage": 3334,
      "north": 3335,
      "northern": 3336,
      "normal": 3337,
      "octomom": 3338,
      "picked": 3339,
      "picasso": 3340,
      "walls": 3341,
      "yards": 3342,
      "doorbell": 3343,
      "soldier": 3344,
      "charge": 3345,
      "charges": 3346,
      "charity": 3347,
      "charged": 3348,
      "lawsuits": 3349,
      "computers": 3350,
      "spends": 3351,
      "breath": 3352,
      "instructions": 3353,
      "desktop": 3354,
      "vacuumed": 3355,
      "relaxed": 3356,
      "deaf": 3357,
      "film": 3358,
      "fighting": 3359,
      "genes": 3360,
      "genres": 3361,
      "horn": 3362,
      "lane": 3363,
      "chuck": 3364,
      "fingernails": 3365,
      "stronger": 3366,
      "sharpeners": 3367,
      "answered": 3368,
      "91170": 3369,
      "crying": 3370,
      "figured": 3371,
      "gambling": 3372,
      "knitting": 3373,
      "purse": 3374,
      "purses": 3375,
      "pursuit": 3376,
      "snowman": 3377,
      "screws": 3378,
      "tasty": 3379,
      "tests": 3380,
      "various": 3381,
      "measure": 3382,
      "china": 3383,
      "starving": 3384,
      "starbucks": 3385,
      "sticker": 3386,
      "steps": 3387,
      "rolled": 3388,
      "loses": 3389,
      "examine": 3390,
      "pulls": 3391,
      "pulled": 3392,
      "dictionaries": 3393,
      "changed": 3394,
      "troublemakers": 3395,
      "prayers": 3396,
      "robbery": 3397,
      "crowds": 3398,
      "knocking": 3399,
      "burner": 3400,
      "coworkers": 3401,
      "crud": 3402,
      "disap": 3403,
      "disgust": 3404,
      "filled": 3405,
      "ipod": 3406,
      "reporting": 3407,
      "stem": 3408,
      "steal": 3409,
      "stinks": 3410,
      "reservations": 3411,
      "quietly": 3412,
      "stomachaches": 3413,
      "42cent": 3414,
      "456": 3415,
      "bowling": 3416,
      "daughter": 3417,
      "flown": 3418,
      "flower": 3419,
      "gardening": 3420,
      "hysterically": 3421,
      "latest": 3422,
      "lators": 3423,
      "nonfat": 3424,
      "nonsmoking": 3425,
      "osite": 3426,
      "occur": 3427,
      "occasion": 3428,
      "pcs": 3429,
      "pended": 3430,
      "sides": 3431,
      "volume": 3432,
      "reminder": 3433,
      "whether": 3434,
      "wheelchairs": 3435,
      "entire": 3436,
      "leaves": 3437,
      "league": 3438,
      "leaders": 3439,
      "welcome": 3440,
      "seldom": 3441,
      "versary": 3442,
      "covered": 3443,
      "ironon": 3444,
      "holidays": 3445,
      "survive": 3446,
      "surgery": 3447,
      "subscription": 3448,
      "subscribed": 3449,
      "raising": 3450,
      "raised": 3451,
      "placed": 3452,
      "storms": 3453,
      "america": 3454,
      "american": 3455,
      "democrats": 3456,
      "democratic": 3457,
      "waistband": 3458,
      "footer": 3459,
      "sidewalks": 3460,
      "condition": 3461,
      "continued": 3462,
      "controls": 3463,
      "loosened": 3464,
      "bandaids": 3465,
      "personality": 3466,
      "piece": 3467,
      "pieces": 3468,
      "language": 3469,
      "languages": 3470,
      "calculator": 3471,
      "calculators": 3472,
      "climbing": 3473,
      "argument": 3474,
      "healthy": 3475,
      "stripes": 3476,
      "hobby": 3477,
      "savings": 3478,
      "reelection": 3479,
      "political": 3480,
      "customer": 3481,
      "magazines": 3482,
      "!...": 3483,
      "011287": 3484,
      "13inch": 3485,
      "25footer": 3486,
      "automatic": 3487,
      "awesome": 3488,
      "aisle": 3489,
      "average": 3490,
      "april": 3491,
      "avoid": 3492,
      "besides": 3493,
      "bismol": 3494,
      "boobs": 3495,
      "cereal": 3496,
      "cadillac": 3497,
      "cups": 3498,
      "coffin": 3499,
      "coughing": 3500,
      "credit": 3501,
      "duties": 3502,
      "damp": 3503,
      "drowned": 3504,
      "doublecheck": 3505,
      "damage": 3506,
      "eeze": 3507,
      "evable": 3508,
      "furthest": 3509,
      "facial": 3510,
      "harsh": 3511,
      "harmless": 3512,
      "imagine": 3513,
      "january": 3514,
      "jaywalking": 3515,
      "jammed": 3516,
      "knee": 3517,
      "large": 3518,
      "layoffs": 3519,
      "labor": 3520,
      "mirror": 3521,
      "murder": 3522,
      "opposite": 3523,
      "poured": 3524,
      "patient": 3525,
      "photos": 3526,
      "rerun": 3527,
      "rinse": 3528,
      "routine": 3529,
      "rusty": 3530,
      "rhyme": 3531,
      "system": 3532,
      "suspended": 3533,
      "southern": 3534,
      "since": 3535,
      "sweat": 3536,
      "swimming": 3537,
      "swelling": 3538,
      "silverware": 3539,
      "squeeze": 3540,
      "skills": 3541,
      "snoring": 3542,
      "totally": 3543,
      "trees": 3544,
      "taylors": 3545,
      "twentyfive": 3546,
      "twelve": 3547,
      "uhoh": 3548,
      "values": 3549,
      "watched": 3550,
      "walked": 3551,
      "wounded": 3552,
      "thousand": 3553,
      "initial": 3554,
      "insurance": 3555,
      "insert": 3556,
      "inspection": 3557,
      "increase": 3558,
      "invented": 3559,
      "anita": 3560,
      "anniversary": 3561,
      "reliable": 3562,
      "repairman": 3563,
      "reviews": 3564,
      "republicans": 3565,
      "regardless": 3566,
      "realize": 3567,
      "registration": 3568,
      "meowing": 3569,
      "melts": 3570,
      "original": 3571,
      "organization": 3572,
      "entered": 3573,
      "arizona": 3574,
      "leftovers": 3575,
      "legislators": 3576,
      "identify": 3577,
      "weighs": 3578,
      "security": 3579,
      "outfield": 3580,
      "altitude": 3581,
      "righthanded": 3582,
      "fortune": 3583,
      "adventure": 3584,
      "peeled": 3585,
      "celery": 3586,
      "unplug": 3587,
      "unbelievable": 3588,
      "goodsmelling": 3589,
      "campus": 3590,
      "pollution": 3591,
      "textbooks": 3592,
      "temperature": 3593,
      "telephones": 3594,
      "property": 3595,
      "processed": 3596,
      "victorious": 3597,
      "victim": 3598,
      "bumped": 3599,
      "lawns": 3600,
      "lettuce": 3601,
      "themselves": 3602,
      "responsibil": 3603,
      "depends": 3604,
      "activities": 3605,
      "rainstorm": 3606,
      "guarantees": 3607,
      "excellent": 3608,
      "housekeeping": 3609,
      "sprinkled": 3610,
      "sports": 3611,
      "visitors": 3612,
      "concrete": 3613,
      "considering": 3614,
      "babysitter": 3615,
      "butterflies": 3616,
      "fireplaces": 3617,
      "sensitive": 3618,
      "mmddyy": 3619,
      "disappear": 3620,
      "disgusting": 3621,
      "occasionally": 3622,
      "conditioner": 3623,
      "responsibility": 3624,
      "150": 3625,
      "?!": 3626,
      "av": 3627,
      "ail": 3628,
      "ahor": 3629,
      "agent": 3630,
      "bt": 3631,
      "bin": 3632,
      "bone": 3633,
      "bright": 3634,
      "bbl": 3635,
      "bars": 3636,
      "bies": 3637,
      "cate": 3638,
      "dou": 3639,
      "drun": 3640,
      "fif": 3641,
      "fants": 3642,
      "gg": 3643,
      "gle": 3644,
      "hid": 3645,
      "hoo": 3646,
      "honey": 3647,
      "ians": 3648,
      "ko": 3649,
      "kitt": 3650,
      "knu": 3651,
      "lter": 3652,
      "mple": 3653,
      "mars": 3654,
      "nan": 3655,
      "nut": 3656,
      "nif": 3657,
      "ogle": 3658,
      "ride": 3659,
      "rings": 3660,
      "sat": 3661,
      "swear": 3662,
      "snails": 3663,
      "snif": 3664,
      "tch": 3665,
      "tast": 3666,
      "umb": 3667,
      "wer": 3668,
      "wit": 3669,
      "xist": 3670,
      "infants": 3671,
      "atles": 3672,
      "atlan": 3673,
      "thes": 3674,
      "anic": 3675,
      "rew": 3676,
      "rean": 3677,
      "rell": 3678,
      "repe": 3679,
      "mechan": 3680,
      "ories": 3681,
      "thattheir": 3682,
      "ens": 3683,
      "enot": 3684,
      "beatles": 3685,
      "arch": 3686,
      "leads": 3687,
      "google": 3688,
      "sore": 3689,
      "soak": 3690,
      "sexist": 3691,
      "search": 3692,
      "choo": 3693,
      "lick": 3694,
      "andrew": 3695,
      "stations": 3696,
      "noses": 3697,
      "rier": 3698,
      "ripped": 3699,
      "form": 3700,
      "forgive": 3701,
      "former": 3702,
      "ading": 3703,
      "adder": 3704,
      "donations": 3705,
      "mop": 3706,
      "moder": 3707,
      "moves": 3708,
      "ship": 3709,
      "losing": 3710,
      "someday": 3711,
      "ckles": 3712,
      "ently": 3713,
      "anytime": 3714,
      "shelter": 3715,
      "nies": 3716,
      "nicer": 3717,
      "sauce": 3718,
      "sample": 3719,
      "ending": 3720,
      "camer": 3721,
      "caused": 3722,
      "peopl": 3723,
      "lotto": 3724,
      "lotion": 3725,
      "pladder": 3726,
      "carrier": 3727,
      "himself": 3728,
      "meaning": 3729,
      "saying": 3730,
      "bubbl": 3731,
      "jogg": 3732,
      "letting": 3733,
      "happiness": 3734,
      "office": 3735,
      "cheating": 3736,
      "rowed": 3737,
      "somethingyou": 3738,
      "acros": 3739,
      "bless": 3740,
      "focus": 3741,
      "exit": 3742,
      "pennies": 3743,
      "buying": 3744,
      "dies": 3745,
      "happening": 3746,
      "bored": 3747,
      "clothes": 3748,
      "ference": 3749,
      "stain": 3750,
      "spare": 3751,
      "spring": 3752,
      "shower": 3753,
      "quently": 3754,
      "watchdogs": 3755,
      "cted": 3756,
      "singer": 3757,
      "planes": 3758,
      "name": 3759,
      "turning": 3760,
      "smokes": 3761,
      "gaining": 3762,
      "hearing": 3763,
      "conference": 3764,
      "stretch": 3765,
      "interview": 3766,
      "mommy": 3767,
      "suntan": 3768,
      "pickle": 3769,
      "checkbook": 3770,
      "frequently": 3771,
      "50percent": 3772,
      "problemsshe": 3773,
      "understands": 3774,
      "blacky": 3775,
      "apply": 3776,
      "washes": 3777,
      "washings": 3778,
      "hug": 3779,
      "huh": 3780,
      "giving": 3781,
      "powerful": 3782,
      "print": 3783,
      "senator": 3784,
      "carrying": 3785,
      "bara": 3786,
      "barbara": 3787,
      "count": 3788,
      "fallen": 3789,
      "animal": 3790,
      "official": 3791,
      "millions": 3792,
      "vacation": 3793,
      "towed": 3794,
      "doctorsno": 3795,
      "candy": 3796,
      "filthy": 3797,
      "titanic": 3798,
      "invading": 3799,
      "stuffed": 3800,
      "bluedog123ya": 3801,
      "figures": 3802,
      "windy": 3803,
      "liethat": 3804,
      "neighborhoods": 3805,
      "cds": 3806,
      "calories": 3807,
      "discount": 3808,
      "stepladder": 3809,
      "shooting": 3810,
      "quicker": 3811,
      "hurricane": 3812,
      "conversing": 3813,
      "crashes": 3814,
      "deserve": 3815,
      "zzz": 3816,
      "arguing": 3817,
      "strict": 3818,
      "hobbies": 3819,
      "reelected": 3820,
      "politicians": 3821,
      "customs": 3822,
      "magazine": 3823,
      "patients": 3824,
      "avail": 3825,
      "ahora": 3826,
      "cateyes": 3827,
      "doubt": 3828,
      "drunks": 3829,
      "fifteen": 3830,
      "hidden": 3831,
      "korean": 3832,
      "kittens": 3833,
      "knuckles": 3834,
      "nanny": 3835,
      "nuts": 3836,
      "sniff": 3837,
      "tastes": 3838,
      "umbrell": 3839,
      "weren": 3840,
      "witness": 3841,
      "atlantic": 3842,
      "repeat": 3843,
      "mechanic": 3844,
      "choose": 3845,
      "modern": 3846,
      "camera": 3847,
      "peoplenot": 3848,
      "bubbles": 3849,
      "jogging": 3850,
      "across": 3851,
      "bluedog123yahoo": 3852,
      "available": 3853,
      "umbrella": 3854
    },
    "merges": [
      [
        "e",
        "r"
      ],
      [
        "t",
        "h"
      ],
      [
        "u",
        "s"
      ],
      [
        "o",
        "t"
      ],
      [
        "b",
        "ot"
      ],
      [
        "us",
        "er"
      ],
      [
        "o",
        "u"
      ],
      [
        "i",
        "n"
      ],
      [
        "a",
        "t"
      ],
      [
        "th",
        "e"
      ],
      [
        "y",
        "ou"
      ],
      [
        "a",
        "n"
      ],
      [
        "t",
        "o"
      ],
      [
        "r",
        "e"
      ],
      [
        "i",
        "t"
      ],
      [
        "o",
        "n"
      ],
      [
        "l",
        "l"
      ],
      [
        "e",
        "s"
      ],
      [
        "in",
        "g"
      ],
      [
        "w",
        "h"
      ],
      [
        "m",
        "e"
      ],
      [
        "v",
        "e"
      ],
      [
        "i",
        "s"
      ],
      [
        "o",
        "r"
      ],
      [
        "th",
        "at"
      ],
      [
        "d",
        "o"
      ],
      [
        "a",
        "s"
      ],
      [
        "e",
        "n"
      ],
      [
        "b",
        "e"
      ],
      [
        "a",
        "r"
      ],
      [
        "h",
        "e"
      ],
      [
        "l",
        "e"
      ],
      [
        "a",
        "y"
      ],
      [
        "o",
        "w"
      ],
      [
        "i",
        "d"
      ],
      [
        "g",
        "o"
      ],
      [
        "h",
        "a"
      ],
      [
        "k",
        "e"
      ],
      [
        "wh",
        "at"
      ],
      [
        "s",
        "o"
      ],
      [
        "w",
        "e"
      ],
      [
        "s",
        "e"
      ],
      [
        "c",
        "h"
      ],
      [
        "l",
        "i"
      ],
      [
        "o",
        "f"
      ],
      [
        "l",
        "d"
      ],
      [
        "an",
        "d"
      ],
      [
        "e",
        "d"
      ],
      [
        "s",
        "t"
      ],
      [
        "a",
        "ll"
      ],
      [
        "u",
        "t"
      ],
      [
        "a",
        "re"
      ],
      [
        "ha",
        "ve"
      ],
      [
        "d",
        "id"
      ],
      [
        "w",
        "i"
      ],
      [
        "ou",
        "t"
      ],
      [
        "n",
        "e"
      ],
      [
        "g",
        "h"
      ],
      [
        "o",
        "o"
      ],
      [
        "on",
        "e"
      ],
      [
        "v",
        "er"
      ],
      [
        "n",
        "o"
      ],
      [
        "er",
        "e"
      ],
      [
        "the",
        "y"
      ],
      [
        "a",
        "l"
      ],
      [
        "r",
        "i"
      ],
      [
        "w",
        "as"
      ],
      [
        "e",
        "t"
      ],
      [
        "a",
        "b"
      ],
      [
        "ou",
        "ld"
      ],
      [
        "f",
        "or"
      ],
      [
        "y",
        "es"
      ],
      [
        "gh",
        "t"
      ],
      [
        "t",
        "i"
      ],
      [
        "li",
        "ke"
      ],
      [
        "b",
        "ut"
      ],
      [
        "m",
        "y"
      ],
      [
        "a",
        "d"
      ],
      [
        "d",
        "on"
      ],
      [
        "p",
        "e"
      ],
      [
        "m",
        "o"
      ],
      [
        "in",
        "k"
      ],
      [
        "an",
        "t"
      ],
      [
        "s",
        "h"
      ],
      [
        "c",
        "e"
      ],
      [
        "t",
        "er"
      ],
      [
        "n",
        "ow"
      ],
      [
        "l",
        "y"
      ],
      [
        "c",
        "an"
      ],
      [
        "ab",
        "out"
      ],
      [
        "u",
        "n"
      ],
      [
        "r",
        "o"
      ],
      [
        "th",
        "ink"
      ],
      [
        "to",
        "o"
      ],
      [
        "o",
        "d"
      ],
      [
        "h",
        "ow"
      ],
      [
        "g",
        "et"
      ],
      [
        "th",
        "ing"
      ],
      [
        "n",
        "ot"
      ],
      [
        "c",
        "o"
      ],
      [
        "l",
        "o"
      ],
      [
        "ou",
        "r"
      ],
      [
        "you",
        "r"
      ],
      [
        "so",
        "me"
      ],
      [
        "i",
        "r"
      ],
      [
        "wh",
        "y"
      ],
      [
        "all",
        "y"
      ],
      [
        "c",
        "k"
      ],
      [
        "h",
        "o"
      ],
      [
        "d",
        "ay"
      ],
      [
        "w",
        "ant"
      ],
      [
        "go",
        "od"
      ],
      [
        "e",
        "ver"
      ],
      [
        "th",
        "er"
      ],
      [
        "wi",
        "th"
      ],
      [
        "go",
        "ing"
      ],
      [
        "i",
        "f"
      ],
      [
        "th",
        "ere"
      ],
      [
        "us",
        "t"
      ],
      [
        "k",
        "now"
      ],
      [
        "wi",
        "ll"
      ],
      [
        "s",
        "u"
      ],
      [
        "en",
        "t"
      ],
      [
        "p",
        "le"
      ],
      [
        "r",
        "a"
      ],
      [
        "m",
        "a"
      ],
      [
        "us",
        "e"
      ],
      [
        "re",
        "ally"
      ],
      [
        "u",
        "r"
      ],
      [
        "an",
        "y"
      ],
      [
        "f",
        "e"
      ],
      [
        "s",
        "he"
      ],
      [
        "we",
        "ll"
      ],
      [
        "n",
        "i"
      ],
      [
        "w",
        "ould"
      ],
      [
        "p",
        "p"
      ],
      [
        "e",
        "a"
      ],
      [
        "j",
        "ust"
      ],
      [
        "s",
        "a"
      ],
      [
        "oo",
        "k"
      ],
      [
        "ar",
        "t"
      ],
      [
        "w",
        "or"
      ],
      [
        "th",
        "is"
      ],
      [
        "se",
        "e"
      ],
      [
        "en",
        "d"
      ],
      [
        "ou",
        "n"
      ],
      [
        "c",
        "a"
      ],
      [
        "i",
        "m"
      ],
      [
        "r",
        "y"
      ],
      [
        "ever",
        "y"
      ],
      [
        "sh",
        "ould"
      ],
      [
        "t",
        "a"
      ],
      [
        "m",
        "ay"
      ],
      [
        "pe",
        "o"
      ],
      [
        "peo",
        "ple"
      ],
      [
        "ne",
        "w"
      ],
      [
        "l",
        "ot"
      ],
      [
        "p",
        "l"
      ],
      [
        "oun",
        "d"
      ],
      [
        "i",
        "ve"
      ],
      [
        "l",
        "ook"
      ],
      [
        "do",
        "es"
      ],
      [
        "the",
        "n"
      ],
      [
        "at",
        "e"
      ],
      [
        "ri",
        "ght"
      ],
      [
        "ti",
        "me"
      ],
      [
        "p",
        "o"
      ],
      [
        "t",
        "e"
      ],
      [
        "i",
        "g"
      ],
      [
        "th",
        "an"
      ],
      [
        "ne",
        "ed"
      ],
      [
        "c",
        "ar"
      ],
      [
        "ni",
        "ce"
      ],
      [
        "did",
        "n"
      ],
      [
        "oo",
        "l"
      ],
      [
        "h",
        "er"
      ],
      [
        "o",
        "k"
      ],
      [
        "s",
        "to"
      ],
      [
        "u",
        "p"
      ],
      [
        "one",
        "y"
      ],
      [
        "m",
        "oney"
      ],
      [
        "g",
        "e"
      ],
      [
        "o",
        "h"
      ],
      [
        "may",
        "be"
      ],
      [
        "er",
        "s"
      ],
      [
        "p",
        "ro"
      ],
      [
        "v",
        "i"
      ],
      [
        "in",
        "d"
      ],
      [
        "h",
        "im"
      ],
      [
        "m",
        "u"
      ],
      [
        "on",
        "g"
      ],
      [
        "c",
        "our"
      ],
      [
        "wh",
        "en"
      ],
      [
        "e",
        "ar"
      ],
      [
        "g",
        "re"
      ],
      [
        "wh",
        "o"
      ],
      [
        "me",
        "an"
      ],
      [
        "a",
        "m"
      ],
      [
        "s",
        "ch"
      ],
      [
        "ar",
        "d"
      ],
      [
        "sch",
        "ool"
      ],
      [
        "g",
        "ot"
      ],
      [
        "i",
        "ll"
      ],
      [
        "w",
        "ay"
      ],
      [
        "cour",
        "se"
      ],
      [
        "s",
        "ay"
      ],
      [
        "b",
        "le"
      ],
      [
        "r",
        "u"
      ],
      [
        "t",
        "y"
      ],
      [
        "al",
        "k"
      ],
      [
        "b",
        "a"
      ],
      [
        "b",
        "u"
      ],
      [
        "mu",
        "ch"
      ],
      [
        "e",
        "l"
      ],
      [
        "mo",
        "vi"
      ],
      [
        "lo",
        "ve"
      ],
      [
        "ca",
        "use"
      ],
      [
        "ok",
        "ay"
      ],
      [
        "e",
        "ve"
      ],
      [
        "g",
        "a"
      ],
      [
        "l",
        "a"
      ],
      [
        "be",
        "cause"
      ],
      [
        "su",
        "re"
      ],
      [
        "j",
        "o"
      ],
      [
        "o",
        "ther"
      ],
      [
        "is",
        "h"
      ],
      [
        "on",
        "ly"
      ],
      [
        "i",
        "on"
      ],
      [
        "le",
        "t"
      ],
      [
        "i",
        "c"
      ],
      [
        "p",
        "er"
      ],
      [
        "the",
        "m"
      ],
      [
        "re",
        "s"
      ],
      [
        "wh",
        "ere"
      ],
      [
        "i",
        "l"
      ],
      [
        "es",
        "t"
      ],
      [
        "ha",
        "d"
      ],
      [
        "w",
        "o"
      ],
      [
        "be",
        "en"
      ],
      [
        "ha",
        "pp"
      ],
      [
        "ma",
        "ke"
      ],
      [
        "d",
        "e"
      ],
      [
        "be",
        "t"
      ],
      [
        "of",
        "f"
      ],
      [
        "oo",
        "d"
      ],
      [
        "wor",
        "k"
      ],
      [
        "gre",
        "at"
      ],
      [
        "c",
        "he"
      ],
      [
        "w",
        "a"
      ],
      [
        "re",
        "ad"
      ],
      [
        "mo",
        "re"
      ],
      [
        "ta",
        "ke"
      ],
      [
        "than",
        "k"
      ],
      [
        "r",
        "ow"
      ],
      [
        "x",
        "t"
      ],
      [
        "0",
        "0"
      ],
      [
        "f",
        "ri"
      ],
      [
        "g",
        "ive"
      ],
      [
        "m",
        "in"
      ],
      [
        "es",
        "s"
      ],
      [
        "some",
        "thing"
      ],
      [
        "fri",
        "end"
      ],
      [
        "at",
        "ch"
      ],
      [
        "f",
        "un"
      ],
      [
        "f",
        "ro"
      ],
      [
        "fro",
        "m"
      ],
      [
        "i",
        "ght"
      ],
      [
        "p",
        "a"
      ],
      [
        "as",
        "t"
      ],
      [
        "te",
        "ll"
      ],
      [
        "movi",
        "e"
      ],
      [
        "a",
        "c"
      ],
      [
        "b",
        "l"
      ],
      [
        "n",
        "t"
      ],
      [
        "ke",
        "t"
      ],
      [
        "ne",
        "xt"
      ],
      [
        "ound",
        "s"
      ],
      [
        "c",
        "le"
      ],
      [
        "f",
        "o"
      ],
      [
        "ou",
        "ght"
      ],
      [
        "it",
        "e"
      ],
      [
        "ra",
        "in"
      ],
      [
        "h",
        "as"
      ],
      [
        "w",
        "ere"
      ],
      [
        "h",
        "is"
      ],
      [
        "e",
        "at"
      ],
      [
        "to",
        "day"
      ],
      [
        "m",
        "an"
      ],
      [
        "t",
        "alk"
      ],
      [
        "w",
        "on"
      ],
      [
        "ne",
        "ver"
      ],
      [
        "co",
        "m"
      ],
      [
        "g",
        "u"
      ],
      [
        "a",
        "ther"
      ],
      [
        "st",
        "art"
      ],
      [
        "m",
        "b"
      ],
      [
        "p",
        "re"
      ],
      [
        "p",
        "ut"
      ],
      [
        "y",
        "ear"
      ],
      [
        "co",
        "me"
      ],
      [
        "h",
        "ere"
      ],
      [
        "as",
        "s"
      ],
      [
        "wa",
        "it"
      ],
      [
        "re",
        "e"
      ],
      [
        "ho",
        "pe"
      ],
      [
        "pro",
        "ble"
      ],
      [
        "bet",
        "ter"
      ],
      [
        "proble",
        "m"
      ],
      [
        "e",
        "x"
      ],
      [
        "is",
        "t"
      ],
      [
        "d",
        "er"
      ],
      [
        "p",
        "en"
      ],
      [
        "p",
        "art"
      ],
      [
        "at",
        "er"
      ],
      [
        "to",
        "m"
      ],
      [
        "bu",
        "y"
      ],
      [
        "jo",
        "b"
      ],
      [
        "b",
        "ad"
      ],
      [
        "o",
        "us"
      ],
      [
        "o",
        "ld"
      ],
      [
        "g",
        "l"
      ],
      [
        "t",
        "wo"
      ],
      [
        "it",
        "t"
      ],
      [
        "does",
        "n"
      ],
      [
        "c",
        "ould"
      ],
      [
        "l",
        "ong"
      ],
      [
        "ou",
        "gh"
      ],
      [
        "at",
        "ion"
      ],
      [
        "the",
        "ir"
      ],
      [
        "ver",
        "y"
      ],
      [
        "ea",
        "ch"
      ],
      [
        "sa",
        "id"
      ],
      [
        "fo",
        "re"
      ],
      [
        "a",
        "f"
      ],
      [
        "k",
        "es"
      ],
      [
        "ho",
        "me"
      ],
      [
        "c",
        "all"
      ],
      [
        "d",
        "i"
      ],
      [
        "f",
        "a"
      ],
      [
        "g",
        "s"
      ],
      [
        "i",
        "ck"
      ],
      [
        "in",
        "e"
      ],
      [
        "mo",
        "st"
      ],
      [
        "fe",
        "el"
      ],
      [
        "happ",
        "en"
      ],
      [
        "b",
        "o"
      ],
      [
        "k",
        "ing"
      ],
      [
        "r",
        "oo"
      ],
      [
        "me",
        "nt"
      ],
      [
        "sh",
        "o"
      ],
      [
        "way",
        "s"
      ],
      [
        "roo",
        "m"
      ],
      [
        "b",
        "ig"
      ],
      [
        "e",
        "p"
      ],
      [
        "s",
        "ounds"
      ],
      [
        "t",
        "v"
      ],
      [
        "we",
        "ather"
      ],
      [
        "no",
        "se"
      ],
      [
        "ho",
        "use"
      ],
      [
        "eve",
        "n"
      ],
      [
        "c",
        "lo"
      ],
      [
        "e",
        "k"
      ],
      [
        "f",
        "er"
      ],
      [
        "w",
        "n"
      ],
      [
        "we",
        "ek"
      ],
      [
        "st",
        "a"
      ],
      [
        "ti",
        "on"
      ],
      [
        "c",
        "ket"
      ],
      [
        "f",
        "ood"
      ],
      [
        "v",
        "ot"
      ],
      [
        "an",
        "ge"
      ],
      [
        "wh",
        "i"
      ],
      [
        "some",
        "one"
      ],
      [
        "any",
        "thing"
      ],
      [
        "min",
        "ut"
      ],
      [
        "pre",
        "t"
      ],
      [
        "f",
        "r"
      ],
      [
        "g",
        "er"
      ],
      [
        "m",
        "at"
      ],
      [
        "o",
        "se"
      ],
      [
        "s",
        "p"
      ],
      [
        "w",
        "in"
      ],
      [
        "sh",
        "ow"
      ],
      [
        "cle",
        "an"
      ],
      [
        "b",
        "y"
      ],
      [
        "q",
        "u"
      ],
      [
        "u",
        "l"
      ],
      [
        "v",
        "es"
      ],
      [
        "as",
        "e"
      ],
      [
        "ab",
        "le"
      ],
      [
        "ba",
        "ck"
      ],
      [
        "pret",
        "ty"
      ],
      [
        "c",
        "i"
      ],
      [
        "l",
        "f"
      ],
      [
        "m",
        "any"
      ],
      [
        "in",
        "to"
      ],
      [
        "have",
        "n"
      ],
      [
        "al",
        "ways"
      ],
      [
        "h",
        "ot"
      ],
      [
        "w",
        "ent"
      ],
      [
        "pl",
        "ay"
      ],
      [
        "part",
        "y"
      ],
      [
        "b",
        "us"
      ],
      [
        "k",
        "ind"
      ],
      [
        "s",
        "me"
      ],
      [
        "y",
        "ea"
      ],
      [
        "be",
        "li"
      ],
      [
        "st",
        "ill"
      ],
      [
        "wor",
        "ld"
      ],
      [
        "read",
        "y"
      ],
      [
        "sme",
        "ll"
      ],
      [
        "yea",
        "h"
      ],
      [
        "h",
        "ur"
      ],
      [
        "l",
        "itt"
      ],
      [
        "m",
        "es"
      ],
      [
        "o",
        "ver"
      ],
      [
        "v",
        "ing"
      ],
      [
        "w",
        "atch"
      ],
      [
        "in",
        "t"
      ],
      [
        "do",
        "ing"
      ],
      [
        "he",
        "ard"
      ],
      [
        "id",
        "ea"
      ],
      [
        "ke",
        "d"
      ],
      [
        "no",
        "thing"
      ],
      [
        "ni",
        "ght"
      ],
      [
        "litt",
        "le"
      ],
      [
        "b",
        "all"
      ],
      [
        "c",
        "t"
      ],
      [
        "f",
        "i"
      ],
      [
        "s",
        "ing"
      ],
      [
        "b",
        "ab"
      ],
      [
        "c",
        "to"
      ],
      [
        "d",
        "ri"
      ],
      [
        "d",
        "if"
      ],
      [
        "p",
        "h"
      ],
      [
        "w",
        "r"
      ],
      [
        "co",
        "st"
      ],
      [
        "new",
        "s"
      ],
      [
        "af",
        "ter"
      ],
      [
        "dif",
        "fer"
      ],
      [
        "b",
        "r"
      ],
      [
        "b",
        "est"
      ],
      [
        "f",
        "ir"
      ],
      [
        "m",
        "ight"
      ],
      [
        "or",
        "row"
      ],
      [
        "ti",
        "mes"
      ],
      [
        "ur",
        "n"
      ],
      [
        "ga",
        "me"
      ],
      [
        "beli",
        "eve"
      ],
      [
        "c",
        "l"
      ],
      [
        "g",
        "ir"
      ],
      [
        "to",
        "ld"
      ],
      [
        "gir",
        "l"
      ],
      [
        "c",
        "it"
      ],
      [
        "h",
        "i"
      ],
      [
        "s",
        "or"
      ],
      [
        "v",
        "it"
      ],
      [
        "be",
        "a"
      ],
      [
        "id",
        "e"
      ],
      [
        "fir",
        "st"
      ],
      [
        "f",
        "ind"
      ],
      [
        "h",
        "ard"
      ],
      [
        "l",
        "es"
      ],
      [
        "v",
        "or"
      ],
      [
        "w",
        "ish"
      ],
      [
        "re",
        "sta"
      ],
      [
        "st",
        "u"
      ],
      [
        "ur",
        "ant"
      ],
      [
        "sa",
        "me"
      ],
      [
        "pl",
        "an"
      ],
      [
        "tom",
        "orrow"
      ],
      [
        "differ",
        "ent"
      ],
      [
        "resta",
        "urant"
      ],
      [
        "c",
        "ut"
      ],
      [
        "c",
        "are"
      ],
      [
        "n",
        "er"
      ],
      [
        "s",
        "w"
      ],
      [
        "ri",
        "ed"
      ],
      [
        "sto",
        "p"
      ],
      [
        "year",
        "s"
      ],
      [
        "happen",
        "ed"
      ],
      [
        "fr",
        "id"
      ],
      [
        "mat",
        "ter"
      ],
      [
        "a",
        "k"
      ],
      [
        "c",
        "ig"
      ],
      [
        "m",
        "is"
      ],
      [
        "t",
        "each"
      ],
      [
        "is",
        "n"
      ],
      [
        "do",
        "wn"
      ],
      [
        "are",
        "t"
      ],
      [
        "gu",
        "ess"
      ],
      [
        "minut",
        "es"
      ],
      [
        "cig",
        "aret"
      ],
      [
        "c",
        "ent"
      ],
      [
        "f",
        "ive"
      ],
      [
        "l",
        "p"
      ],
      [
        "th",
        "ought"
      ],
      [
        "he",
        "lp"
      ],
      [
        "b",
        "ought"
      ],
      [
        "f",
        "t"
      ],
      [
        "n",
        "a"
      ],
      [
        "t",
        "ry"
      ],
      [
        "t",
        "urn"
      ],
      [
        "w",
        "ater"
      ],
      [
        "y",
        "et"
      ],
      [
        "st",
        "and"
      ],
      [
        "thing",
        "s"
      ],
      [
        "look",
        "ing"
      ],
      [
        "happ",
        "y"
      ],
      [
        "ac",
        "t"
      ],
      [
        "cl",
        "ass"
      ],
      [
        "sor",
        "ry"
      ],
      [
        "l",
        "ast"
      ],
      [
        "s",
        "er"
      ],
      [
        "s",
        "pe"
      ],
      [
        "re",
        "d"
      ],
      [
        "be",
        "fore"
      ],
      [
        "every",
        "one"
      ],
      [
        "el",
        "se"
      ],
      [
        "h",
        "and"
      ],
      [
        "k",
        "id"
      ],
      [
        "l",
        "ate"
      ],
      [
        "do",
        "cto"
      ],
      [
        "al",
        "s"
      ],
      [
        "al",
        "ready"
      ],
      [
        "lot",
        "s"
      ],
      [
        "ph",
        "one"
      ],
      [
        "docto",
        "r"
      ],
      [
        "d",
        "in"
      ],
      [
        "e",
        "as"
      ],
      [
        "i",
        "z"
      ],
      [
        "l",
        "ist"
      ],
      [
        "t",
        "ra"
      ],
      [
        "v",
        "is"
      ],
      [
        "th",
        "ose"
      ],
      [
        "an",
        "other"
      ],
      [
        "talk",
        "ing"
      ],
      [
        "hur",
        "t"
      ],
      [
        "d",
        "ent"
      ],
      [
        "n",
        "y"
      ],
      [
        "p",
        "u"
      ],
      [
        "p",
        "or"
      ],
      [
        "p",
        "ar"
      ],
      [
        "r",
        "un"
      ],
      [
        "s",
        "mo"
      ],
      [
        "t",
        "able"
      ],
      [
        "w",
        "ar"
      ],
      [
        "en",
        "jo"
      ],
      [
        "ad",
        "e"
      ],
      [
        "co",
        "ld"
      ],
      [
        "ga",
        "in"
      ],
      [
        "thank",
        "s"
      ],
      [
        "clo",
        "se"
      ],
      [
        "wr",
        "ong"
      ],
      [
        "enjo",
        "y"
      ],
      [
        "a",
        "ve"
      ],
      [
        "e",
        "yes"
      ],
      [
        "h",
        "ate"
      ],
      [
        "l",
        "u"
      ],
      [
        "m",
        "ust"
      ],
      [
        "s",
        "ide"
      ],
      [
        "t",
        "ru"
      ],
      [
        "the",
        "se"
      ],
      [
        "he",
        "ar"
      ],
      [
        "se",
        "en"
      ],
      [
        "li",
        "ce"
      ],
      [
        "ne",
        "i"
      ],
      [
        "was",
        "n"
      ],
      [
        "ti",
        "l"
      ],
      [
        "un",
        "til"
      ],
      [
        "get",
        "s"
      ],
      [
        "want",
        "ed"
      ],
      [
        "min",
        "e"
      ],
      [
        "week",
        "end"
      ],
      [
        "frid",
        "ay"
      ],
      [
        "din",
        "ner"
      ],
      [
        "list",
        "en"
      ],
      [
        "b",
        "re"
      ],
      [
        "b",
        "od"
      ],
      [
        "c",
        "on"
      ],
      [
        "h",
        "our"
      ],
      [
        "m",
        "on"
      ],
      [
        "n",
        "u"
      ],
      [
        "u",
        "e"
      ],
      [
        "in",
        "vit"
      ],
      [
        "es",
        "e"
      ],
      [
        "as",
        "on"
      ],
      [
        "st",
        "re"
      ],
      [
        "un",
        "der"
      ],
      [
        "ba",
        "th"
      ],
      [
        "mb",
        "er"
      ],
      [
        "whi",
        "le"
      ],
      [
        "bod",
        "y"
      ],
      [
        "a",
        "gain"
      ],
      [
        "e",
        "le"
      ],
      [
        "m",
        "s"
      ],
      [
        "p",
        "s"
      ],
      [
        "ar",
        "s"
      ],
      [
        "ar",
        "ound"
      ],
      [
        "id",
        "ent"
      ],
      [
        "ch",
        "ange"
      ],
      [
        "li",
        "ght"
      ],
      [
        "li",
        "fe"
      ],
      [
        "et",
        "s"
      ],
      [
        "ti",
        "cket"
      ],
      [
        "ck",
        "s"
      ],
      [
        "sa",
        "ve"
      ],
      [
        "vis",
        "it"
      ],
      [
        "c",
        "or"
      ],
      [
        "d",
        "ra"
      ],
      [
        "d",
        "ate"
      ],
      [
        "d",
        "ic"
      ],
      [
        "f",
        "ast"
      ],
      [
        "g",
        "r"
      ],
      [
        "n",
        "ing"
      ],
      [
        "t",
        "ing"
      ],
      [
        "w",
        "alk"
      ],
      [
        "th",
        "ree"
      ],
      [
        "le",
        "ft"
      ],
      [
        "st",
        "ay"
      ],
      [
        "yes",
        "ter"
      ],
      [
        "should",
        "n"
      ],
      [
        "po",
        "lice"
      ],
      [
        "car",
        "s"
      ],
      [
        "ga",
        "ve"
      ],
      [
        "yester",
        "day"
      ],
      [
        "c",
        "re"
      ],
      [
        "c",
        "ri"
      ],
      [
        "f",
        "in"
      ],
      [
        "f",
        "ree"
      ],
      [
        "l",
        "ess"
      ],
      [
        "m",
        "ar"
      ],
      [
        "in",
        "ter"
      ],
      [
        "do",
        "g"
      ],
      [
        "en",
        "ough"
      ],
      [
        "ha",
        "ving"
      ],
      [
        "ke",
        "ep"
      ],
      [
        "ch",
        "an"
      ],
      [
        "mo",
        "m"
      ],
      [
        "say",
        "s"
      ],
      [
        "wo",
        "man"
      ],
      [
        "00",
        "0"
      ],
      [
        "start",
        "ed"
      ],
      [
        "fa",
        "vor"
      ],
      [
        "bus",
        "y"
      ],
      [
        "stu",
        "dent"
      ],
      [
        "bath",
        "room"
      ],
      [
        "2",
        "0"
      ],
      [
        "a",
        "way"
      ],
      [
        "i",
        "ous"
      ],
      [
        "l",
        "ow"
      ],
      [
        "l",
        "ater"
      ],
      [
        "p",
        "ri"
      ],
      [
        "p",
        "ounds"
      ],
      [
        "s",
        "i"
      ],
      [
        "s",
        "al"
      ],
      [
        "s",
        "un"
      ],
      [
        "or",
        "s"
      ],
      [
        "do",
        "gs"
      ],
      [
        "so",
        "l"
      ],
      [
        "so",
        "on"
      ],
      [
        "se",
        "lf"
      ],
      [
        "too",
        "k"
      ],
      [
        "pp",
        "ing"
      ],
      [
        "sa",
        "w"
      ],
      [
        "look",
        "s"
      ],
      [
        "che",
        "ese"
      ],
      [
        "whi",
        "ch"
      ],
      [
        "dra",
        "w"
      ],
      [
        "c",
        "at"
      ],
      [
        "c",
        "tion"
      ],
      [
        "f",
        "our"
      ],
      [
        "f",
        "am"
      ],
      [
        "f",
        "ish"
      ],
      [
        "i",
        "ly"
      ],
      [
        "j",
        "ok"
      ],
      [
        "p",
        "ick"
      ],
      [
        "at",
        "o"
      ],
      [
        "re",
        "al"
      ],
      [
        "re",
        "ason"
      ],
      [
        "on",
        "ce"
      ],
      [
        "me",
        "n"
      ],
      [
        "ve",
        "l"
      ],
      [
        "do",
        "ll"
      ],
      [
        "he",
        "d"
      ],
      [
        "ow",
        "s"
      ],
      [
        "some",
        "times"
      ],
      [
        "fe",
        "ct"
      ],
      [
        "every",
        "thing"
      ],
      [
        "pl",
        "a"
      ],
      [
        "po",
        "cket"
      ],
      [
        "movi",
        "es"
      ],
      [
        "per",
        "fect"
      ],
      [
        "bl",
        "ue"
      ],
      [
        "fore",
        "ver"
      ],
      [
        "cit",
        "y"
      ],
      [
        "kid",
        "s"
      ],
      [
        "fam",
        "ily"
      ],
      [
        "a",
        "ge"
      ],
      [
        "c",
        "atch"
      ],
      [
        "f",
        "u"
      ],
      [
        "f",
        "at"
      ],
      [
        "h",
        "un"
      ],
      [
        "k",
        "ill"
      ],
      [
        "l",
        "oo"
      ],
      [
        "m",
        "er"
      ],
      [
        "m",
        "us"
      ],
      [
        "p",
        "ay"
      ],
      [
        "s",
        "le"
      ],
      [
        "s",
        "ick"
      ],
      [
        "y",
        "e"
      ],
      [
        "it",
        "al"
      ],
      [
        "en",
        "gl"
      ],
      [
        "out",
        "side"
      ],
      [
        "ri",
        "ch"
      ],
      [
        "ri",
        "ble"
      ],
      [
        "think",
        "ing"
      ],
      [
        "ir",
        "ty"
      ],
      [
        "pro",
        "bab"
      ],
      [
        "who",
        "le"
      ],
      [
        "che",
        "ck"
      ],
      [
        "pa",
        "int"
      ],
      [
        "rain",
        "s"
      ],
      [
        "gl",
        "ad"
      ],
      [
        "could",
        "n"
      ],
      [
        "ation",
        "s"
      ],
      [
        "bo",
        "y"
      ],
      [
        "sho",
        "es"
      ],
      [
        "bea",
        "ch"
      ],
      [
        "eas",
        "y"
      ],
      [
        "engl",
        "ish"
      ],
      [
        "probab",
        "ly"
      ],
      [
        "a",
        "ir"
      ],
      [
        "b",
        "it"
      ],
      [
        "b",
        "ook"
      ],
      [
        "b",
        "la"
      ],
      [
        "c",
        "r"
      ],
      [
        "f",
        "f"
      ],
      [
        "f",
        "re"
      ],
      [
        "m",
        "ade"
      ],
      [
        "p",
        "as"
      ],
      [
        "in",
        "st"
      ],
      [
        "it",
        "ch"
      ],
      [
        "get",
        "ting"
      ],
      [
        "ple",
        "ase"
      ],
      [
        "ma",
        "kes"
      ],
      [
        "fe",
        "et"
      ],
      [
        "friend",
        "s"
      ],
      [
        "vot",
        "e"
      ],
      [
        "hi",
        "gh"
      ],
      [
        "tra",
        "vel"
      ],
      [
        "stre",
        "et"
      ],
      [
        "favor",
        "ite"
      ],
      [
        "b",
        "er"
      ],
      [
        "b",
        "and"
      ],
      [
        "c",
        "ou"
      ],
      [
        "c",
        "of"
      ],
      [
        "c",
        "ool"
      ],
      [
        "d",
        "irty"
      ],
      [
        "m",
        "il"
      ],
      [
        "n",
        "ed"
      ],
      [
        "p",
        "res"
      ],
      [
        "s",
        "m"
      ],
      [
        "us",
        "es"
      ],
      [
        "us",
        "ing"
      ],
      [
        "us",
        "ed"
      ],
      [
        "es",
        "pe"
      ],
      [
        "le",
        "ave"
      ],
      [
        "li",
        "ve"
      ],
      [
        "al",
        "most"
      ],
      [
        "ant",
        "s"
      ],
      [
        "lo",
        "st"
      ],
      [
        "su",
        "pp"
      ],
      [
        "su",
        "per"
      ],
      [
        "fe",
        "e"
      ],
      [
        "ta",
        "x"
      ],
      [
        "sto",
        "ry"
      ],
      [
        "res",
        "s"
      ],
      [
        "ose",
        "d"
      ],
      [
        "ci",
        "ally"
      ],
      [
        "bab",
        "y"
      ],
      [
        "cigaret",
        "te"
      ],
      [
        "bre",
        "ak"
      ],
      [
        "mus",
        "ic"
      ],
      [
        "cou",
        "ple"
      ],
      [
        "cof",
        "fee"
      ],
      [
        "espe",
        "cially"
      ],
      [
        "supp",
        "osed"
      ],
      [
        "1",
        "0"
      ],
      [
        "5",
        "0"
      ],
      [
        "b",
        "as"
      ],
      [
        "b",
        "read"
      ],
      [
        "c",
        "ra"
      ],
      [
        "d",
        "ad"
      ],
      [
        "f",
        "ound"
      ],
      [
        "l",
        "ine"
      ],
      [
        "p",
        "ers"
      ],
      [
        "r",
        "ink"
      ],
      [
        "t",
        "al"
      ],
      [
        "u",
        "ally"
      ],
      [
        "ut",
        "if"
      ],
      [
        "but",
        "ter"
      ],
      [
        "co",
        "ll"
      ],
      [
        "would",
        "n"
      ],
      [
        "ca",
        "me"
      ],
      [
        "ig",
        "n"
      ],
      [
        "sto",
        "re"
      ],
      [
        "il",
        "s"
      ],
      [
        "fun",
        "ny"
      ],
      [
        "won",
        "der"
      ],
      [
        "gu",
        "y"
      ],
      [
        "problem",
        "s"
      ],
      [
        "fi",
        "re"
      ],
      [
        "br",
        "ing"
      ],
      [
        "bea",
        "utif"
      ],
      [
        "por",
        "t"
      ],
      [
        "lu",
        "ck"
      ],
      [
        "tru",
        "e"
      ],
      [
        "under",
        "stand"
      ],
      [
        "student",
        "s"
      ],
      [
        "fu",
        "ll"
      ],
      [
        "bla",
        "ck"
      ],
      [
        "beautif",
        "ul"
      ],
      [
        "3",
        "0"
      ],
      [
        "a",
        "go"
      ],
      [
        "a",
        "pp"
      ],
      [
        "d",
        "an"
      ],
      [
        "f",
        "ru"
      ],
      [
        "i",
        "ld"
      ],
      [
        "r",
        "ough"
      ],
      [
        "t",
        "u"
      ],
      [
        "t",
        "es"
      ],
      [
        "t",
        "en"
      ],
      [
        "th",
        "rough"
      ],
      [
        "to",
        "n"
      ],
      [
        "wh",
        "ite"
      ],
      [
        "be",
        "d"
      ],
      [
        "go",
        "d"
      ],
      [
        "se",
        "at"
      ],
      [
        "ad",
        "s"
      ],
      [
        "ter",
        "rible"
      ],
      [
        "lo",
        "se"
      ],
      [
        "with",
        "out"
      ],
      [
        "know",
        "s"
      ],
      [
        "su",
        "ch"
      ],
      [
        "ma",
        "il"
      ],
      [
        "car",
        "d"
      ],
      [
        "de",
        "al"
      ],
      [
        "wait",
        "er"
      ],
      [
        "bo",
        "th"
      ],
      [
        "ger",
        "ous"
      ],
      [
        "win",
        "ter"
      ],
      [
        "cost",
        "s"
      ],
      [
        "girl",
        "friend"
      ],
      [
        "cigaret",
        "tes"
      ],
      [
        "ser",
        "ious"
      ],
      [
        "mon",
        "th"
      ],
      [
        "inter",
        "est"
      ],
      [
        "loo",
        "ked"
      ],
      [
        "pres",
        "ident"
      ],
      [
        "dan",
        "gerous"
      ],
      [
        "fru",
        "it"
      ],
      [
        "1",
        "2"
      ],
      [
        "b",
        "an"
      ],
      [
        "b",
        "or"
      ],
      [
        "c",
        "es"
      ],
      [
        "c",
        "ed"
      ],
      [
        "d",
        "es"
      ],
      [
        "d",
        "ro"
      ],
      [
        "d",
        "rink"
      ],
      [
        "f",
        "lo"
      ],
      [
        "h",
        "it"
      ],
      [
        "h",
        "on"
      ],
      [
        "i",
        "es"
      ],
      [
        "l",
        "s"
      ],
      [
        "p",
        "are"
      ],
      [
        "p",
        "iz"
      ],
      [
        "t",
        "r"
      ],
      [
        "z",
        "a"
      ],
      [
        "us",
        "h"
      ],
      [
        "to",
        "p"
      ],
      [
        "or",
        "ange"
      ],
      [
        "le",
        "ar"
      ],
      [
        "se",
        "ll"
      ],
      [
        "st",
        "am"
      ],
      [
        "al",
        "so"
      ],
      [
        "was",
        "h"
      ],
      [
        "ti",
        "res"
      ],
      [
        "ir",
        "d"
      ],
      [
        "ma",
        "c"
      ],
      [
        "po",
        "s"
      ],
      [
        "mean",
        "s"
      ],
      [
        "ment",
        "s"
      ],
      [
        "dri",
        "ver"
      ],
      [
        "plan",
        "e"
      ],
      [
        "nei",
        "ther"
      ],
      [
        "sun",
        "day"
      ],
      [
        "sol",
        "ut"
      ],
      [
        "jok",
        "es"
      ],
      [
        "doll",
        "ar"
      ],
      [
        "piz",
        "za"
      ],
      [
        "1",
        "5"
      ],
      [
        "b",
        "ro"
      ],
      [
        "d",
        "le"
      ],
      [
        "d",
        "ig"
      ],
      [
        "e",
        "ight"
      ],
      [
        "f",
        "it"
      ],
      [
        "f",
        "ar"
      ],
      [
        "f",
        "la"
      ],
      [
        "g",
        "es"
      ],
      [
        "g",
        "un"
      ],
      [
        "h",
        "ood"
      ],
      [
        "p",
        "ot"
      ],
      [
        "s",
        "low"
      ],
      [
        "an",
        "ut"
      ],
      [
        "as",
        "ked"
      ],
      [
        "go",
        "es"
      ],
      [
        "ha",
        "mb"
      ],
      [
        "ad",
        "d"
      ],
      [
        "pe",
        "anut"
      ],
      [
        "ro",
        "s"
      ],
      [
        "ma",
        "ch"
      ],
      [
        "ea",
        "m"
      ],
      [
        "la",
        "u"
      ],
      [
        "per",
        "cent"
      ],
      [
        "de",
        "li"
      ],
      [
        "work",
        "ing"
      ],
      [
        "che",
        "a"
      ],
      [
        "pa",
        "per"
      ],
      [
        "eat",
        "ing"
      ],
      [
        "ex",
        "cit"
      ],
      [
        "call",
        "ed"
      ],
      [
        "feel",
        "ing"
      ],
      [
        "minut",
        "e"
      ],
      [
        "late",
        "ly"
      ],
      [
        "invit",
        "ation"
      ],
      [
        "pri",
        "ce"
      ],
      [
        "ye",
        "ll"
      ],
      [
        "dig",
        "ital"
      ],
      [
        "pot",
        "ato"
      ],
      [
        "hamb",
        "ur"
      ],
      [
        "b",
        "ase"
      ],
      [
        "c",
        "er"
      ],
      [
        "c",
        "ros"
      ],
      [
        "d",
        "ry"
      ],
      [
        "d",
        "ru"
      ],
      [
        "e",
        "ge"
      ],
      [
        "e",
        "ves"
      ],
      [
        "g",
        "ry"
      ],
      [
        "h",
        "u"
      ],
      [
        "l",
        "un"
      ],
      [
        "m",
        "ot"
      ],
      [
        "m",
        "ind"
      ],
      [
        "p",
        "t"
      ],
      [
        "p",
        "es"
      ],
      [
        "p",
        "ants"
      ],
      [
        "s",
        "and"
      ],
      [
        "z",
        "y"
      ],
      [
        "in",
        "s"
      ],
      [
        "re",
        "me"
      ],
      [
        "as",
        "k"
      ],
      [
        "ar",
        "y"
      ],
      [
        "li",
        "for"
      ],
      [
        "for",
        "get"
      ],
      [
        "ti",
        "ll"
      ],
      [
        "ter",
        "y"
      ],
      [
        "ho",
        "ld"
      ],
      [
        "ho",
        "sp"
      ],
      [
        "ni",
        "a"
      ],
      [
        "ca",
        "lifor"
      ],
      [
        "po",
        "l"
      ],
      [
        "po",
        "int"
      ],
      [
        "wa",
        "ke"
      ],
      [
        "friend",
        "ly"
      ],
      [
        "nt",
        "s"
      ],
      [
        "start",
        "s"
      ],
      [
        "ex",
        "act"
      ],
      [
        "home",
        "work"
      ],
      [
        "di",
        "vor"
      ],
      [
        "clo",
        "ck"
      ],
      [
        "ci",
        "ous"
      ],
      [
        "fi",
        "x"
      ],
      [
        "nu",
        "mber"
      ],
      [
        "pla",
        "in"
      ],
      [
        "cra",
        "zy"
      ],
      [
        "tal",
        "ent"
      ],
      [
        "coll",
        "ege"
      ],
      [
        "deli",
        "cious"
      ],
      [
        "base",
        "ball"
      ],
      [
        "reme",
        "mber"
      ],
      [
        "califor",
        "nia"
      ],
      [
        "exact",
        "ly"
      ],
      [
        "divor",
        "ced"
      ],
      [
        "f",
        "ing"
      ],
      [
        "g",
        "i"
      ],
      [
        "g",
        "row"
      ],
      [
        "i",
        "i"
      ],
      [
        "i",
        "o"
      ],
      [
        "j",
        "u"
      ],
      [
        "l",
        "t"
      ],
      [
        "l",
        "and"
      ],
      [
        "m",
        "p"
      ],
      [
        "o",
        "pen"
      ],
      [
        "p",
        "ow"
      ],
      [
        "r",
        "an"
      ],
      [
        "r",
        "ad"
      ],
      [
        "s",
        "k"
      ],
      [
        "t",
        "is"
      ],
      [
        "t",
        "ried"
      ],
      [
        "t",
        "eam"
      ],
      [
        "at",
        "t"
      ],
      [
        "on",
        "t"
      ],
      [
        "es",
        "tion"
      ],
      [
        "as",
        "king"
      ],
      [
        "en",
        "a"
      ],
      [
        "li",
        "er"
      ],
      [
        "li",
        "kes"
      ],
      [
        "wi",
        "ch"
      ],
      [
        "wi",
        "pe"
      ],
      [
        "ad",
        "ena"
      ],
      [
        "mo",
        "ve"
      ],
      [
        "sh",
        "ot"
      ],
      [
        "sh",
        "ir"
      ],
      [
        "fe",
        "w"
      ],
      [
        "see",
        "ms"
      ],
      [
        "every",
        "body"
      ],
      [
        "ear",
        "lier"
      ],
      [
        "school",
        "s"
      ],
      [
        "love",
        "d"
      ],
      [
        "mb",
        "ers"
      ],
      [
        "wait",
        "ing"
      ],
      [
        "itt",
        "ing"
      ],
      [
        "sho",
        "pping"
      ],
      [
        "fr",
        "ont"
      ],
      [
        "qu",
        "estion"
      ],
      [
        "pu",
        "pp"
      ],
      [
        "nei",
        "gh"
      ],
      [
        "nu",
        "mbers"
      ],
      [
        "fin",
        "ish"
      ],
      [
        "mar",
        "ket"
      ],
      [
        "sal",
        "t"
      ],
      [
        "pas",
        "adena"
      ],
      [
        "ban",
        "an"
      ],
      [
        "lau",
        "gh"
      ],
      [
        "potato",
        "es"
      ],
      [
        "sand",
        "wich"
      ],
      [
        "pow",
        "er"
      ],
      [
        "rad",
        "io"
      ],
      [
        "tis",
        "su"
      ],
      [
        "shir",
        "t"
      ],
      [
        "4",
        "0"
      ],
      [
        "c",
        "ook"
      ],
      [
        "f",
        "ather"
      ],
      [
        "i",
        "ce"
      ],
      [
        "m",
        "id"
      ],
      [
        "p",
        "r"
      ],
      [
        "r",
        "id"
      ],
      [
        "s",
        "en"
      ],
      [
        "at",
        "ur"
      ],
      [
        "me",
        "dic"
      ],
      [
        "as",
        "h"
      ],
      [
        "ow",
        "n"
      ],
      [
        "ha",
        "lf"
      ],
      [
        "what",
        "ever"
      ],
      [
        "we",
        "ar"
      ],
      [
        "se",
        "d"
      ],
      [
        "se",
        "t"
      ],
      [
        "st",
        "r"
      ],
      [
        "for",
        "d"
      ],
      [
        "but",
        "ton"
      ],
      [
        "sh",
        "ar"
      ],
      [
        "lo",
        "ves"
      ],
      [
        "ra",
        "ther"
      ],
      [
        "sa",
        "le"
      ],
      [
        "sa",
        "fe"
      ],
      [
        "car",
        "ry"
      ],
      [
        "gre",
        "e"
      ],
      [
        "la",
        "id"
      ],
      [
        "bl",
        "ow"
      ],
      [
        "bl",
        "ind"
      ],
      [
        "cle",
        "ar"
      ],
      [
        "pen",
        "s"
      ],
      [
        "af",
        "ford"
      ],
      [
        "fa",
        "ce"
      ],
      [
        "watch",
        "ing"
      ],
      [
        "hi",
        "re"
      ],
      [
        "mis",
        "sing"
      ],
      [
        "na",
        "ils"
      ],
      [
        "try",
        "ing"
      ],
      [
        "act",
        "ually"
      ],
      [
        "smo",
        "king"
      ],
      [
        "cri",
        "me"
      ],
      [
        "sle",
        "ep"
      ],
      [
        "fre",
        "sh"
      ],
      [
        "tax",
        "es"
      ],
      [
        "guy",
        "s"
      ],
      [
        "luck",
        "y"
      ],
      [
        "seat",
        "s"
      ],
      [
        "pare",
        "nts"
      ],
      [
        "pos",
        "si"
      ],
      [
        "lun",
        "ch"
      ],
      [
        "gi",
        "ves"
      ],
      [
        "mid",
        "dle"
      ],
      [
        "1",
        "1"
      ],
      [
        "2",
        "00"
      ],
      [
        "9",
        "8"
      ],
      [
        "a",
        "po"
      ],
      [
        "b",
        "ar"
      ],
      [
        "c",
        "c"
      ],
      [
        "c",
        "art"
      ],
      [
        "c",
        "oun"
      ],
      [
        "d",
        "re"
      ],
      [
        "e",
        "i"
      ],
      [
        "f",
        "l"
      ],
      [
        "f",
        "all"
      ],
      [
        "f",
        "ul"
      ],
      [
        "g",
        "ers"
      ],
      [
        "g",
        "iz"
      ],
      [
        "h",
        "us"
      ],
      [
        "k",
        "itch"
      ],
      [
        "m",
        "ill"
      ],
      [
        "p",
        "ass"
      ],
      [
        "s",
        "it"
      ],
      [
        "s",
        "ha"
      ],
      [
        "s",
        "li"
      ],
      [
        "s",
        "ign"
      ],
      [
        "t",
        "all"
      ],
      [
        "t",
        "ri"
      ],
      [
        "t",
        "ree"
      ],
      [
        "th",
        "row"
      ],
      [
        "bot",
        "tom"
      ],
      [
        "in",
        "et"
      ],
      [
        "an",
        "im"
      ],
      [
        "to",
        "r"
      ],
      [
        "re",
        "cor"
      ],
      [
        "on",
        "es"
      ],
      [
        "ve",
        "lo"
      ],
      [
        "is",
        "e"
      ],
      [
        "en",
        "velo"
      ],
      [
        "be",
        "ing"
      ],
      [
        "le",
        "d"
      ],
      [
        "go",
        "lf"
      ],
      [
        "ch",
        "o"
      ],
      [
        "st",
        "ea"
      ],
      [
        "out",
        "fit"
      ],
      [
        "no",
        "body"
      ],
      [
        "pe",
        "pp"
      ],
      [
        "ink",
        "ing"
      ],
      [
        "lo",
        "giz"
      ],
      [
        "your",
        "self"
      ],
      [
        "any",
        "more"
      ],
      [
        "wor",
        "ried"
      ],
      [
        "pro",
        "mot"
      ],
      [
        "ru",
        "de"
      ],
      [
        "bu",
        "ild"
      ],
      [
        "off",
        "er"
      ],
      [
        "off",
        "ic"
      ],
      [
        "pa",
        "ir"
      ],
      [
        "bl",
        "inking"
      ],
      [
        "fo",
        "ll"
      ],
      [
        "rain",
        "ing"
      ],
      [
        "com",
        "es"
      ],
      [
        "com",
        "ing"
      ],
      [
        "part",
        "ment"
      ],
      [
        "gl",
        "ass"
      ],
      [
        "di",
        "e"
      ],
      [
        "nose",
        "y"
      ],
      [
        "vot",
        "ed"
      ],
      [
        "sing",
        "ers"
      ],
      [
        "na",
        "p"
      ],
      [
        "spe",
        "ed"
      ],
      [
        "par",
        "king"
      ],
      [
        "hour",
        "s"
      ],
      [
        "less",
        "on"
      ],
      [
        "pocket",
        "s"
      ],
      [
        "hun",
        "gry"
      ],
      [
        "mil",
        "k"
      ],
      [
        "sm",
        "art"
      ],
      [
        "super",
        "bad"
      ],
      [
        "pers",
        "on"
      ],
      [
        "stam",
        "p"
      ],
      [
        "fla",
        "g"
      ],
      [
        "dru",
        "gs"
      ],
      [
        "pol",
        "ite"
      ],
      [
        "sk",
        "y"
      ],
      [
        "att",
        "end"
      ],
      [
        "tissu",
        "e"
      ],
      [
        "apo",
        "logiz"
      ],
      [
        "ei",
        "ther"
      ],
      [
        "hus",
        "band"
      ],
      [
        "kitch",
        "en"
      ],
      [
        "mill",
        "ion"
      ],
      [
        "tri",
        "p"
      ],
      [
        "envelo",
        "pe"
      ],
      [
        "stea",
        "k"
      ],
      [
        "pepp",
        "er"
      ],
      [
        "promot",
        "ion"
      ],
      [
        "build",
        "ing"
      ],
      [
        "a",
        "gree"
      ],
      [
        "b",
        "s"
      ],
      [
        "c",
        "ident"
      ],
      [
        "d",
        "v"
      ],
      [
        "e",
        "ly"
      ],
      [
        "f",
        "li"
      ],
      [
        "f",
        "ly"
      ],
      [
        "f",
        "ine"
      ],
      [
        "i",
        "er"
      ],
      [
        "i",
        "et"
      ],
      [
        "j",
        "a"
      ],
      [
        "l",
        "ou"
      ],
      [
        "m",
        "m"
      ],
      [
        "m",
        "or"
      ],
      [
        "n",
        "ess"
      ],
      [
        "p",
        "i"
      ],
      [
        "p",
        "et"
      ],
      [
        "p",
        "top"
      ],
      [
        "u",
        "g"
      ],
      [
        "u",
        "re"
      ],
      [
        "u",
        "ght"
      ],
      [
        "v",
        "ac"
      ],
      [
        "th",
        "ough"
      ],
      [
        "in",
        "ess"
      ],
      [
        "to",
        "we"
      ],
      [
        "to",
        "ge"
      ],
      [
        "to",
        "wn"
      ],
      [
        "or",
        "der"
      ],
      [
        "he",
        "ad"
      ],
      [
        "he",
        "ave"
      ],
      [
        "ab",
        "solut"
      ],
      [
        "my",
        "self"
      ],
      [
        "ir",
        "s"
      ],
      [
        "ho",
        "le"
      ],
      [
        "any",
        "one"
      ],
      [
        "fe",
        "ll"
      ],
      [
        "she",
        "ets"
      ],
      [
        "wor",
        "ry"
      ],
      [
        "im",
        "ple"
      ],
      [
        "ta",
        "in"
      ],
      [
        "may",
        "or"
      ],
      [
        "pro",
        "mis"
      ],
      [
        "ru",
        "b"
      ],
      [
        "ty",
        "pe"
      ],
      [
        "la",
        "ptop"
      ],
      [
        "give",
        "n"
      ],
      [
        "tell",
        "ing"
      ],
      [
        "ac",
        "cident"
      ],
      [
        "com",
        "plain"
      ],
      [
        "pen",
        "c"
      ],
      [
        "di",
        "ed"
      ],
      [
        "qu",
        "it"
      ],
      [
        "kind",
        "s"
      ],
      [
        "fi",
        "res"
      ],
      [
        "dri",
        "ve"
      ],
      [
        "br",
        "ush"
      ],
      [
        "sw",
        "itch"
      ],
      [
        "cent",
        "s"
      ],
      [
        "help",
        "ed"
      ],
      [
        "spe",
        "ak"
      ],
      [
        "listen",
        "ing"
      ],
      [
        "ele",
        "ction"
      ],
      [
        "cre",
        "am"
      ],
      [
        "chan",
        "ne"
      ],
      [
        "bas",
        "ket"
      ],
      [
        "peanut",
        "s"
      ],
      [
        "chea",
        "per"
      ],
      [
        "cer",
        "tain"
      ],
      [
        "pupp",
        "y"
      ],
      [
        "possi",
        "ble"
      ],
      [
        "anim",
        "als"
      ],
      [
        "dv",
        "d"
      ],
      [
        "lou",
        "d"
      ],
      [
        "mor",
        "ning"
      ],
      [
        "toge",
        "ther"
      ],
      [
        "heave",
        "n"
      ],
      [
        "absolut",
        "ely"
      ],
      [
        "1",
        "98"
      ],
      [
        "a",
        "partment"
      ],
      [
        "b",
        "ir"
      ],
      [
        "b",
        "ur"
      ],
      [
        "b",
        "other"
      ],
      [
        "c",
        "u"
      ],
      [
        "c",
        "ha"
      ],
      [
        "c",
        "ab"
      ],
      [
        "c",
        "ur"
      ],
      [
        "c",
        "ows"
      ],
      [
        "d",
        "y"
      ],
      [
        "d",
        "red"
      ],
      [
        "e",
        "mp"
      ],
      [
        "g",
        "one"
      ],
      [
        "k",
        "er"
      ],
      [
        "m",
        "c"
      ],
      [
        "m",
        "i"
      ],
      [
        "n",
        "or"
      ],
      [
        "o",
        "cto"
      ],
      [
        "p",
        "ic"
      ],
      [
        "p",
        "ood"
      ],
      [
        "p",
        "atch"
      ],
      [
        "p",
        "ets"
      ],
      [
        "s",
        "ne"
      ],
      [
        "s",
        "co"
      ],
      [
        "s",
        "ong"
      ],
      [
        "s",
        "itting"
      ],
      [
        "u",
        "u"
      ],
      [
        "w",
        "s"
      ],
      [
        "w",
        "ow"
      ],
      [
        "w",
        "all"
      ],
      [
        "y",
        "ard"
      ],
      [
        "z",
        "ing"
      ],
      [
        "er",
        "k"
      ],
      [
        "ou",
        "ble"
      ],
      [
        "re",
        "n"
      ],
      [
        "re",
        "la"
      ],
      [
        "re",
        "cent"
      ],
      [
        "it",
        "y"
      ],
      [
        "on",
        "line"
      ],
      [
        "ing",
        "s"
      ],
      [
        "or",
        "t"
      ],
      [
        "do",
        "or"
      ],
      [
        "be",
        "er"
      ],
      [
        "he",
        "at"
      ],
      [
        "so",
        "ld"
      ],
      [
        "ch",
        "ar"
      ],
      [
        "st",
        "ars"
      ],
      [
        "st",
        "ress"
      ],
      [
        "ri",
        "es"
      ],
      [
        "for",
        "table"
      ],
      [
        "like",
        "d"
      ],
      [
        "ce",
        "ll"
      ],
      [
        "ho",
        "uses"
      ],
      [
        "day",
        "s"
      ],
      [
        "any",
        "way"
      ],
      [
        "art",
        "ist"
      ],
      [
        "ta",
        "kes"
      ],
      [
        "sto",
        "mach"
      ],
      [
        "mu",
        "d"
      ],
      [
        "ear",
        "th"
      ],
      [
        "ear",
        "ly"
      ],
      [
        "ill",
        "y"
      ],
      [
        "bu",
        "ried"
      ],
      [
        "la",
        "w"
      ],
      [
        "che",
        "d"
      ],
      [
        "row",
        "n"
      ],
      [
        "rain",
        "ed"
      ],
      [
        "com",
        "put"
      ],
      [
        "com",
        "fortable"
      ],
      [
        "pen",
        "ny"
      ],
      [
        "sho",
        "p"
      ],
      [
        "vot",
        "ing"
      ],
      [
        "sp",
        "end"
      ],
      [
        "win",
        "do"
      ],
      [
        "play",
        "ers"
      ],
      [
        "bus",
        "iness"
      ],
      [
        "hur",
        "ry"
      ],
      [
        "dri",
        "ving"
      ],
      [
        "frid",
        "ge"
      ],
      [
        "teach",
        "er"
      ],
      [
        "hand",
        "s"
      ],
      [
        "doctor",
        "s"
      ],
      [
        "par",
        "k"
      ],
      [
        "smo",
        "ke"
      ],
      [
        "war",
        "m"
      ],
      [
        "bre",
        "a"
      ],
      [
        "ele",
        "ct"
      ],
      [
        "pla",
        "ce"
      ],
      [
        "hun",
        "dred"
      ],
      [
        "kill",
        "ed"
      ],
      [
        "pay",
        "ing"
      ],
      [
        "air",
        "port"
      ],
      [
        "book",
        "s"
      ],
      [
        "inst",
        "ru"
      ],
      [
        "mil",
        "es"
      ],
      [
        "interest",
        "ing"
      ],
      [
        "des",
        "k"
      ],
      [
        "hon",
        "est"
      ],
      [
        "lear",
        "n"
      ],
      [
        "excit",
        "ing"
      ],
      [
        "hambur",
        "gers"
      ],
      [
        "talent",
        "ed"
      ],
      [
        "land",
        "ed"
      ],
      [
        "shot",
        "s"
      ],
      [
        "banan",
        "a"
      ],
      [
        "laugh",
        "ing"
      ],
      [
        "throw",
        "ing"
      ],
      [
        "recor",
        "d"
      ],
      [
        "vac",
        "uu"
      ],
      [
        "bir",
        "th"
      ],
      [
        "emp",
        "ty"
      ],
      [
        "sco",
        "re"
      ],
      [
        "rela",
        "x"
      ],
      [
        "1",
        "00"
      ],
      [
        "1",
        "40"
      ],
      [
        "b",
        "at"
      ],
      [
        "c",
        "y"
      ],
      [
        "c",
        "and"
      ],
      [
        "c",
        "ti"
      ],
      [
        "c",
        "ase"
      ],
      [
        "d",
        "ea"
      ],
      [
        "f",
        "il"
      ],
      [
        "f",
        "ight"
      ],
      [
        "g",
        "as"
      ],
      [
        "g",
        "en"
      ],
      [
        "g",
        "ra"
      ],
      [
        "h",
        "an"
      ],
      [
        "h",
        "or"
      ],
      [
        "i",
        "eves"
      ],
      [
        "l",
        "an"
      ],
      [
        "m",
        "mer"
      ],
      [
        "n",
        "g"
      ],
      [
        "n",
        "ch"
      ],
      [
        "n",
        "ment"
      ],
      [
        "o",
        "ba"
      ],
      [
        "p",
        "ing"
      ],
      [
        "p",
        "ink"
      ],
      [
        "s",
        "s"
      ],
      [
        "s",
        "pa"
      ],
      [
        "s",
        "atur"
      ],
      [
        "t",
        "it"
      ],
      [
        "u",
        "res"
      ],
      [
        "th",
        "ieves"
      ],
      [
        "ou",
        "p"
      ],
      [
        "in",
        "v"
      ],
      [
        "you",
        "ng"
      ],
      [
        "an",
        "s"
      ],
      [
        "an",
        "sw"
      ],
      [
        "it",
        "ing"
      ],
      [
        "it",
        "als"
      ],
      [
        "me",
        "t"
      ],
      [
        "ve",
        "n"
      ],
      [
        "en",
        "ce"
      ],
      [
        "be",
        "lt"
      ],
      [
        "ar",
        "m"
      ],
      [
        "ar",
        "ti"
      ],
      [
        "he",
        "ll"
      ],
      [
        "go",
        "ver"
      ],
      [
        "se",
        "w"
      ],
      [
        "ch",
        "u"
      ],
      [
        "ch",
        "ur"
      ],
      [
        "li",
        "c"
      ],
      [
        "are",
        "n"
      ],
      [
        "wi",
        "fe"
      ],
      [
        "wi",
        "pes"
      ],
      [
        "no",
        "on"
      ],
      [
        "al",
        "one"
      ],
      [
        "ab",
        "les"
      ],
      [
        "ti",
        "ger"
      ],
      [
        "ro",
        "b"
      ],
      [
        "think",
        "s"
      ],
      [
        "some",
        "time"
      ],
      [
        "su",
        "mmer"
      ],
      [
        "ma",
        "th"
      ],
      [
        "pp",
        "ed"
      ],
      [
        "im",
        "port"
      ],
      [
        "car",
        "pet"
      ],
      [
        "when",
        "ever"
      ],
      [
        "ear",
        "s"
      ],
      [
        "let",
        "ter"
      ],
      [
        "pre",
        "dic"
      ],
      [
        "ass",
        "ign"
      ],
      [
        "ex",
        "pens"
      ],
      [
        "tom",
        "ato"
      ],
      [
        "sta",
        "ins"
      ],
      [
        "hot",
        "el"
      ],
      [
        "smell",
        "s"
      ],
      [
        "wr",
        "iting"
      ],
      [
        "vit",
        "y"
      ],
      [
        "stu",
        "ff"
      ],
      [
        "cut",
        "e"
      ],
      [
        "cut",
        "s"
      ],
      [
        "sw",
        "alk"
      ],
      [
        "mis",
        "sed"
      ],
      [
        "eas",
        "ier"
      ],
      [
        "run",
        "ning"
      ],
      [
        "visit",
        "ed"
      ],
      [
        "dog",
        "12"
      ],
      [
        "si",
        "x"
      ],
      [
        "sol",
        "ve"
      ],
      [
        "blue",
        "dog12"
      ],
      [
        "fre",
        "nch"
      ],
      [
        "funny",
        "looking"
      ],
      [
        "cros",
        "swalk"
      ],
      [
        "hu",
        "ge"
      ],
      [
        "hosp",
        "itals"
      ],
      [
        "fing",
        "er"
      ],
      [
        "medic",
        "ine"
      ],
      [
        "str",
        "ong"
      ],
      [
        "shar",
        "pen"
      ],
      [
        "clear",
        "ly"
      ],
      [
        "fly",
        "ing"
      ],
      [
        "ja",
        "il"
      ],
      [
        "ug",
        "ly"
      ],
      [
        "channe",
        "ls"
      ],
      [
        "basket",
        "ball"
      ],
      [
        "bat",
        "tery"
      ],
      [
        "gra",
        "vity"
      ],
      [
        "han",
        "g"
      ],
      [
        "oba",
        "ma"
      ],
      [
        "spa",
        "ce"
      ],
      [
        "satur",
        "day"
      ],
      [
        "answ",
        "er"
      ],
      [
        "arti",
        "cle"
      ],
      [
        "gover",
        "nment"
      ],
      [
        "chur",
        "ch"
      ],
      [
        "import",
        "ant"
      ],
      [
        "predic",
        "table"
      ],
      [
        "assign",
        "ments"
      ],
      [
        "expens",
        "ive"
      ],
      [
        "bluedog12",
        "3"
      ],
      [
        "4",
        "00"
      ],
      [
        "8",
        "5"
      ],
      [
        "9",
        "0"
      ],
      [
        "9",
        "11"
      ],
      [
        "a",
        "ld"
      ],
      [
        "a",
        "ma"
      ],
      [
        "a",
        "kes"
      ],
      [
        "b",
        "ors"
      ],
      [
        "b",
        "rown"
      ],
      [
        "c",
        "ry"
      ],
      [
        "c",
        "ong"
      ],
      [
        "c",
        "row"
      ],
      [
        "c",
        "ast"
      ],
      [
        "c",
        "ked"
      ],
      [
        "d",
        "ing"
      ],
      [
        "d",
        "ur"
      ],
      [
        "d",
        "ive"
      ],
      [
        "e",
        "g"
      ],
      [
        "e",
        "xt"
      ],
      [
        "e",
        "ct"
      ],
      [
        "e",
        "ms"
      ],
      [
        "e",
        "ye"
      ],
      [
        "f",
        "le"
      ],
      [
        "f",
        "ig"
      ],
      [
        "g",
        "am"
      ],
      [
        "i",
        "ers"
      ],
      [
        "i",
        "pt"
      ],
      [
        "j",
        "erk"
      ],
      [
        "k",
        "n"
      ],
      [
        "k",
        "in"
      ],
      [
        "k",
        "en"
      ],
      [
        "k",
        "no"
      ],
      [
        "k",
        "new"
      ],
      [
        "k",
        "ers"
      ],
      [
        "m",
        "ou"
      ],
      [
        "m",
        "it"
      ],
      [
        "n",
        "ation"
      ],
      [
        "n",
        "inet"
      ],
      [
        "o",
        "ce"
      ],
      [
        "p",
        "ur"
      ],
      [
        "p",
        "any"
      ],
      [
        "p",
        "ound"
      ],
      [
        "p",
        "ill"
      ],
      [
        "p",
        "cc"
      ],
      [
        "r",
        "b"
      ],
      [
        "r",
        "at"
      ],
      [
        "r",
        "ush"
      ],
      [
        "s",
        "on"
      ],
      [
        "s",
        "now"
      ],
      [
        "s",
        "ent"
      ],
      [
        "s",
        "ound"
      ],
      [
        "s",
        "cre"
      ],
      [
        "s",
        "imple"
      ],
      [
        "t",
        "as"
      ],
      [
        "t",
        "est"
      ],
      [
        "v",
        "ar"
      ],
      [
        "w",
        "ind"
      ],
      [
        "w",
        "ood"
      ],
      [
        "th",
        "ird"
      ],
      [
        "us",
        "hed"
      ],
      [
        "us",
        "ually"
      ],
      [
        "an",
        "ce"
      ],
      [
        "re",
        "st"
      ],
      [
        "re",
        "ce"
      ],
      [
        "re",
        "ci"
      ],
      [
        "re",
        "turn"
      ],
      [
        "it",
        "s"
      ],
      [
        "me",
        "as"
      ],
      [
        "me",
        "ant"
      ],
      [
        "me",
        "tery"
      ],
      [
        "ve",
        "d"
      ],
      [
        "or",
        "id"
      ],
      [
        "do",
        "m"
      ],
      [
        "do",
        "ors"
      ],
      [
        "as",
        "le"
      ],
      [
        "as",
        "hed"
      ],
      [
        "en",
        "se"
      ],
      [
        "be",
        "come"
      ],
      [
        "be",
        "long"
      ],
      [
        "ow",
        "ed"
      ],
      [
        "id",
        "ate"
      ],
      [
        "ha",
        "m"
      ],
      [
        "we",
        "t"
      ],
      [
        "we",
        "ight"
      ],
      [
        "we",
        "ird"
      ],
      [
        "ch",
        "in"
      ],
      [
        "ch",
        "ild"
      ],
      [
        "li",
        "e"
      ],
      [
        "st",
        "ar"
      ],
      [
        "st",
        "up"
      ],
      [
        "st",
        "ick"
      ],
      [
        "st",
        "ep"
      ],
      [
        "ti",
        "c"
      ],
      [
        "ti",
        "es"
      ],
      [
        "don",
        "ald"
      ],
      [
        "mo",
        "us"
      ],
      [
        "sh",
        "ort"
      ],
      [
        "ce",
        "metery"
      ],
      [
        "un",
        "predictable"
      ],
      [
        "ro",
        "ll"
      ],
      [
        "ro",
        "ck"
      ],
      [
        "lo",
        "s"
      ],
      [
        "good",
        "ness"
      ],
      [
        "ra",
        "ce"
      ],
      [
        "any",
        "where"
      ],
      [
        "wor",
        "th"
      ],
      [
        "see",
        "m"
      ],
      [
        "oun",
        "ces"
      ],
      [
        "every",
        "where"
      ],
      [
        "ta",
        "king"
      ],
      [
        "pl",
        "us"
      ],
      [
        "po",
        "ems"
      ],
      [
        "te",
        "en"
      ],
      [
        "need",
        "s"
      ],
      [
        "sto",
        "le"
      ],
      [
        "sto",
        "pping"
      ],
      [
        "sto",
        "pped"
      ],
      [
        "pro",
        "ve"
      ],
      [
        "vi",
        "ce"
      ],
      [
        "cour",
        "t"
      ],
      [
        "gre",
        "en"
      ],
      [
        "la",
        "ke"
      ],
      [
        "other",
        "s"
      ],
      [
        "wo",
        "men"
      ],
      [
        "de",
        "ad"
      ],
      [
        "work",
        "s"
      ],
      [
        "pa",
        "le"
      ],
      [
        "ast",
        "ed"
      ],
      [
        "tell",
        "s"
      ],
      [
        "ac",
        "tor"
      ],
      [
        "bl",
        "ood"
      ],
      [
        "com",
        "pany"
      ],
      [
        "ex",
        "am"
      ],
      [
        "di",
        "al"
      ],
      [
        "fa",
        "mous"
      ],
      [
        "room",
        "s"
      ],
      [
        "sp",
        "ot"
      ],
      [
        "sp",
        "it"
      ],
      [
        "win",
        "s"
      ],
      [
        "show",
        "s"
      ],
      [
        "qu",
        "ite"
      ],
      [
        "qu",
        "akes"
      ],
      [
        "ul",
        "ations"
      ],
      [
        "br",
        "ought"
      ],
      [
        "girl",
        "s"
      ],
      [
        "stu",
        "ck"
      ],
      [
        "care",
        "s"
      ],
      [
        "teach",
        "ing"
      ],
      [
        "turn",
        "ed"
      ],
      [
        "ser",
        "vice"
      ],
      [
        "kid",
        "ding"
      ],
      [
        "tra",
        "ff"
      ],
      [
        "hurt",
        "s"
      ],
      [
        "pu",
        "ll"
      ],
      [
        "por",
        "ations"
      ],
      [
        "par",
        "ties"
      ],
      [
        "smo",
        "ker"
      ],
      [
        "enjoy",
        "ed"
      ],
      [
        "stre",
        "ets"
      ],
      [
        "cor",
        "ner"
      ],
      [
        "cor",
        "porations"
      ],
      [
        "dic",
        "tion"
      ],
      [
        "stay",
        "ed"
      ],
      [
        "chan",
        "g"
      ],
      [
        "jok",
        "ing"
      ],
      [
        "pick",
        "ing"
      ],
      [
        "doll",
        "ars"
      ],
      [
        "cr",
        "ashed"
      ],
      [
        "sm",
        "all"
      ],
      [
        "break",
        "fast"
      ],
      [
        "10",
        "198"
      ],
      [
        "wonder",
        "ful"
      ],
      [
        "app",
        "reci"
      ],
      [
        "interest",
        "ed"
      ],
      [
        "bor",
        "hood"
      ],
      [
        "dro",
        "ve"
      ],
      [
        "drink",
        "ing"
      ],
      [
        "tr",
        "ouble"
      ],
      [
        "sell",
        "ing"
      ],
      [
        "mac",
        "y"
      ],
      [
        "solut",
        "ion"
      ],
      [
        "mach",
        "ine"
      ],
      [
        "excit",
        "ed"
      ],
      [
        "hambur",
        "ger"
      ],
      [
        "hosp",
        "ital"
      ],
      [
        "neigh",
        "bors"
      ],
      [
        "neigh",
        "borhood"
      ],
      [
        "pr",
        "ay"
      ],
      [
        "dre",
        "am"
      ],
      [
        "fl",
        "orid"
      ],
      [
        "foll",
        "ows"
      ],
      [
        "nap",
        "kin"
      ],
      [
        "apologiz",
        "e"
      ],
      [
        "towe",
        "ls"
      ],
      [
        "penc",
        "ils"
      ],
      [
        "mc",
        "donald"
      ],
      [
        "octo",
        "ber"
      ],
      [
        "song",
        "s"
      ],
      [
        "recent",
        "ly"
      ],
      [
        "sold",
        "iers"
      ],
      [
        "earth",
        "quakes"
      ],
      [
        "comput",
        "er"
      ],
      [
        "brea",
        "the"
      ],
      [
        "instru",
        "ments"
      ],
      [
        "vacuu",
        "m"
      ],
      [
        "cand",
        "idate"
      ],
      [
        "inv",
        "ite"
      ],
      [
        "rob",
        "ber"
      ],
      [
        "cong",
        "rat"
      ],
      [
        "crow",
        "d"
      ],
      [
        "dur",
        "ing"
      ],
      [
        "eg",
        "gs"
      ],
      [
        "ext",
        "ra"
      ],
      [
        "fle",
        "w"
      ],
      [
        "kno",
        "ck"
      ],
      [
        "mou",
        "th"
      ],
      [
        "ninet",
        "y"
      ],
      [
        "oce",
        "an"
      ],
      [
        "rece",
        "ipt"
      ],
      [
        "asle",
        "ep"
      ],
      [
        "child",
        "ren"
      ],
      [
        "stup",
        "id"
      ],
      [
        "traff",
        "ic"
      ],
      [
        "appreci",
        "ate"
      ],
      [
        "florid",
        "a"
      ],
      [
        "congrat",
        "ulations"
      ],
      [
        "9",
        "9"
      ],
      [
        "a",
        "ger"
      ],
      [
        "b",
        "ill"
      ],
      [
        "b",
        "urn"
      ],
      [
        "c",
        "d"
      ],
      [
        "c",
        "ow"
      ],
      [
        "c",
        "id"
      ],
      [
        "c",
        "al"
      ],
      [
        "c",
        "ru"
      ],
      [
        "d",
        "is"
      ],
      [
        "d",
        "one"
      ],
      [
        "d",
        "res"
      ],
      [
        "e",
        "ad"
      ],
      [
        "e",
        "mail"
      ],
      [
        "f",
        "ou"
      ],
      [
        "f",
        "as"
      ],
      [
        "f",
        "ill"
      ],
      [
        "g",
        "ent"
      ],
      [
        "h",
        "mm"
      ],
      [
        "i",
        "p"
      ],
      [
        "i",
        "al"
      ],
      [
        "i",
        "ca"
      ],
      [
        "i",
        "kes"
      ],
      [
        "m",
        "ad"
      ],
      [
        "n",
        "one"
      ],
      [
        "p",
        "ra"
      ],
      [
        "t",
        "our"
      ],
      [
        "u",
        "ce"
      ],
      [
        "y",
        "a"
      ],
      [
        "y",
        "ikes"
      ],
      [
        "er",
        "v"
      ],
      [
        "th",
        "ir"
      ],
      [
        "at",
        "ing"
      ],
      [
        "at",
        "or"
      ],
      [
        "re",
        "por"
      ],
      [
        "me",
        "et"
      ],
      [
        "me",
        "di"
      ],
      [
        "ve",
        "get"
      ],
      [
        "as",
        "tic"
      ],
      [
        "be",
        "ars"
      ],
      [
        "se",
        "ason"
      ],
      [
        "se",
        "ven"
      ],
      [
        "ch",
        "ase"
      ],
      [
        "ch",
        "illy"
      ],
      [
        "li",
        "ving"
      ],
      [
        "st",
        "e"
      ],
      [
        "st",
        "ink"
      ],
      [
        "ne",
        "ar"
      ],
      [
        "al",
        "ong"
      ],
      [
        "ri",
        "can"
      ],
      [
        "for",
        "ty"
      ],
      [
        "ce",
        "pt"
      ],
      [
        "can",
        "s"
      ],
      [
        "ho",
        "les"
      ],
      [
        "want",
        "s"
      ],
      [
        "ple",
        "te"
      ],
      [
        "fe",
        "ed"
      ],
      [
        "wor",
        "se"
      ],
      [
        "see",
        "ing"
      ],
      [
        "ca",
        "ught"
      ],
      [
        "im",
        "possible"
      ],
      [
        "im",
        "medi"
      ],
      [
        "ate",
        "ly"
      ],
      [
        "po",
        "p"
      ],
      [
        "po",
        "or"
      ],
      [
        "po",
        "et"
      ],
      [
        "sto",
        "mac"
      ],
      [
        "up",
        "sta"
      ],
      [
        "up",
        "set"
      ],
      [
        "vi",
        "e"
      ],
      [
        "res",
        "erv"
      ],
      [
        "de",
        "cid"
      ],
      [
        "work",
        "ers"
      ],
      [
        "man",
        "ager"
      ],
      [
        "com",
        "plete"
      ],
      [
        "ex",
        "cept"
      ],
      [
        "gl",
        "ue"
      ],
      [
        "call",
        "ing"
      ],
      [
        "fa",
        "ul"
      ],
      [
        "bo",
        "mb"
      ],
      [
        "sho",
        "ot"
      ],
      [
        "vot",
        "ers"
      ],
      [
        "qu",
        "ick"
      ],
      [
        "qu",
        "iet"
      ],
      [
        "play",
        "er"
      ],
      [
        "hur",
        "rican"
      ],
      [
        "wr",
        "ite"
      ],
      [
        "sor",
        "t"
      ],
      [
        "ide",
        "as"
      ],
      [
        "plan",
        "s"
      ],
      [
        "mis",
        "s"
      ],
      [
        "na",
        "ment"
      ],
      [
        "pu",
        "b"
      ],
      [
        "con",
        "ver"
      ],
      [
        "gr",
        "and"
      ],
      [
        "mar",
        "ried"
      ],
      [
        "sal",
        "ad"
      ],
      [
        "soon",
        "er"
      ],
      [
        "cat",
        "s"
      ],
      [
        "cr",
        "ash"
      ],
      [
        "pas",
        "ta"
      ],
      [
        "inst",
        "ead"
      ],
      [
        "app",
        "les"
      ],
      [
        "bor",
        "n"
      ],
      [
        "des",
        "er"
      ],
      [
        "dro",
        "ps"
      ],
      [
        "flo",
        "or"
      ],
      [
        "lear",
        "ned"
      ],
      [
        "stam",
        "ps"
      ],
      [
        "bro",
        "ke"
      ],
      [
        "chea",
        "p"
      ],
      [
        "fing",
        "ers"
      ],
      [
        "rid",
        "ing"
      ],
      [
        "offic",
        "er"
      ],
      [
        "fli",
        "p"
      ],
      [
        "cti",
        "ce"
      ],
      [
        "dea",
        "th"
      ],
      [
        "chu",
        "cks"
      ],
      [
        "teen",
        "th"
      ],
      [
        "dres",
        "sing"
      ],
      [
        "fou",
        "l"
      ],
      [
        "fas",
        "ter"
      ],
      [
        "pra",
        "ctice"
      ],
      [
        "tour",
        "nament"
      ],
      [
        "thir",
        "teenth"
      ],
      [
        "veget",
        "ables"
      ],
      [
        "immedi",
        "ately"
      ],
      [
        "stomac",
        "ha"
      ],
      [
        "upsta",
        "irs"
      ],
      [
        "decid",
        "ed"
      ],
      [
        "faul",
        "t"
      ],
      [
        ".",
        "."
      ],
      [
        "1",
        "8"
      ],
      [
        "3",
        "00"
      ],
      [
        "4",
        "2"
      ],
      [
        "4",
        "5"
      ],
      [
        "6",
        "0"
      ],
      [
        "6",
        "5"
      ],
      [
        "7",
        "5"
      ],
      [
        "8",
        "0"
      ],
      [
        "8",
        "00"
      ],
      [
        "a",
        "p"
      ],
      [
        "a",
        "id"
      ],
      [
        "b",
        "j"
      ],
      [
        "b",
        "ow"
      ],
      [
        "b",
        "ra"
      ],
      [
        "c",
        "us"
      ],
      [
        "c",
        "li"
      ],
      [
        "c",
        "ul"
      ],
      [
        "c",
        "able"
      ],
      [
        "d",
        "a"
      ],
      [
        "d",
        "ar"
      ],
      [
        "d",
        "ist"
      ],
      [
        "d",
        "uce"
      ],
      [
        "d",
        "ating"
      ],
      [
        "e",
        "th"
      ],
      [
        "e",
        "ch"
      ],
      [
        "e",
        "zing"
      ],
      [
        "f",
        "act"
      ],
      [
        "f",
        "lu"
      ],
      [
        "f",
        "low"
      ],
      [
        "g",
        "in"
      ],
      [
        "g",
        "ard"
      ],
      [
        "g",
        "love"
      ],
      [
        "h",
        "y"
      ],
      [
        "h",
        "at"
      ],
      [
        "h",
        "ind"
      ],
      [
        "h",
        "il"
      ],
      [
        "i",
        "led"
      ],
      [
        "j",
        "ar"
      ],
      [
        "j",
        "ac"
      ],
      [
        "l",
        "b"
      ],
      [
        "l",
        "at"
      ],
      [
        "l",
        "or"
      ],
      [
        "l",
        "one"
      ],
      [
        "l",
        "ide"
      ],
      [
        "m",
        "as"
      ],
      [
        "m",
        "oun"
      ],
      [
        "m",
        "atch"
      ],
      [
        "n",
        "on"
      ],
      [
        "n",
        "ad"
      ],
      [
        "n",
        "atur"
      ],
      [
        "o",
        "s"
      ],
      [
        "o",
        "int"
      ],
      [
        "o",
        "cc"
      ],
      [
        "p",
        "c"
      ],
      [
        "p",
        "in"
      ],
      [
        "p",
        "ant"
      ],
      [
        "p",
        "un"
      ],
      [
        "p",
        "our"
      ],
      [
        "p",
        "end"
      ],
      [
        "p",
        "im"
      ],
      [
        "p",
        "tion"
      ],
      [
        "p",
        "ushed"
      ],
      [
        "r",
        "al"
      ],
      [
        "r",
        "ate"
      ],
      [
        "r",
        "ist"
      ],
      [
        "s",
        "an"
      ],
      [
        "s",
        "is"
      ],
      [
        "s",
        "id"
      ],
      [
        "s",
        "ink"
      ],
      [
        "s",
        "end"
      ],
      [
        "s",
        "ight"
      ],
      [
        "s",
        "sing"
      ],
      [
        "s",
        "cr"
      ],
      [
        "s",
        "cu"
      ],
      [
        "s",
        "oup"
      ],
      [
        "s",
        "lide"
      ],
      [
        "t",
        "ough"
      ],
      [
        "t",
        "ress"
      ],
      [
        "t",
        "asted"
      ],
      [
        "u",
        "al"
      ],
      [
        "u",
        "lo"
      ],
      [
        "u",
        "ate"
      ],
      [
        "u",
        "de"
      ],
      [
        "u",
        "ment"
      ],
      [
        "v",
        "o"
      ],
      [
        "x",
        "ur"
      ],
      [
        "y",
        "s"
      ],
      [
        "y",
        "an"
      ],
      [
        "y",
        "or"
      ],
      [
        "z",
        "e"
      ],
      [
        "z",
        "z"
      ],
      [
        "z",
        "en"
      ],
      [
        "th",
        "re"
      ],
      [
        "th",
        "ri"
      ],
      [
        "us",
        "ual"
      ],
      [
        "in",
        "ed"
      ],
      [
        "in",
        "ju"
      ],
      [
        "at",
        "s"
      ],
      [
        "at",
        "ic"
      ],
      [
        "an",
        "ish"
      ],
      [
        "to",
        "ast"
      ],
      [
        "to",
        "night"
      ],
      [
        "re",
        "mind"
      ],
      [
        "re",
        "cy"
      ],
      [
        "it",
        "ive"
      ],
      [
        "on",
        "s"
      ],
      [
        "on",
        "to"
      ],
      [
        "wh",
        "e"
      ],
      [
        "me",
        "d"
      ],
      [
        "me",
        "tal"
      ],
      [
        "ve",
        "ter"
      ],
      [
        "ve",
        "nt"
      ],
      [
        "is",
        "s"
      ],
      [
        "is",
        "ion"
      ],
      [
        "do",
        "me"
      ],
      [
        "do",
        "zen"
      ],
      [
        "as",
        "ed"
      ],
      [
        "en",
        "ti"
      ],
      [
        "be",
        "ar"
      ],
      [
        "be",
        "ard"
      ],
      [
        "be",
        "gin"
      ],
      [
        "be",
        "hind"
      ],
      [
        "ar",
        "my"
      ],
      [
        "ar",
        "ious"
      ],
      [
        "le",
        "a"
      ],
      [
        "le",
        "ad"
      ],
      [
        "le",
        "ast"
      ],
      [
        "ow",
        "ned"
      ],
      [
        "ha",
        "ir"
      ],
      [
        "ha",
        "wa"
      ],
      [
        "ke",
        "es"
      ],
      [
        "ke",
        "ys"
      ],
      [
        "so",
        "ft"
      ],
      [
        "we",
        "l"
      ],
      [
        "we",
        "en"
      ],
      [
        "se",
        "l"
      ],
      [
        "se",
        "ction"
      ],
      [
        "ch",
        "es"
      ],
      [
        "ch",
        "rist"
      ],
      [
        "ch",
        "ased"
      ],
      [
        "li",
        "ps"
      ],
      [
        "li",
        "cks"
      ],
      [
        "li",
        "mit"
      ],
      [
        "of",
        "ten"
      ],
      [
        "st",
        "ro"
      ],
      [
        "st",
        "ra"
      ],
      [
        "st",
        "ate"
      ],
      [
        "all",
        "owed"
      ],
      [
        "ver",
        "s"
      ],
      [
        "ri",
        "c"
      ],
      [
        "ri",
        "pe"
      ],
      [
        "was",
        "hed"
      ],
      [
        "for",
        "got"
      ],
      [
        "ti",
        "p"
      ],
      [
        "ti",
        "red"
      ],
      [
        "ad",
        "a"
      ],
      [
        "ad",
        "es"
      ],
      [
        "ad",
        "cast"
      ],
      [
        "ad",
        "uate"
      ],
      [
        "mo",
        "ther"
      ],
      [
        "mo",
        "cr"
      ],
      [
        "ant",
        "ly"
      ],
      [
        "sh",
        "ut"
      ],
      [
        "can",
        "ada"
      ],
      [
        "un",
        "it"
      ],
      [
        "od",
        "e"
      ],
      [
        "not",
        "ic"
      ],
      [
        "co",
        "p"
      ],
      [
        "co",
        "ver"
      ],
      [
        "co",
        "lor"
      ],
      [
        "lo",
        "ads"
      ],
      [
        "some",
        "where"
      ],
      [
        "some",
        "body"
      ],
      [
        "ir",
        "on"
      ],
      [
        "ho",
        "l"
      ],
      [
        "ho",
        "ping"
      ],
      [
        "ther",
        "n"
      ],
      [
        "if",
        "e"
      ],
      [
        "su",
        "r"
      ],
      [
        "su",
        "bs"
      ],
      [
        "su",
        "bj"
      ],
      [
        "ra",
        "is"
      ],
      [
        "ma",
        "in"
      ],
      [
        "ma",
        "le"
      ],
      [
        "ma",
        "king"
      ],
      [
        "she",
        "et"
      ],
      [
        "ni",
        "est"
      ],
      [
        "pp",
        "les"
      ],
      [
        "ea",
        "pples"
      ],
      [
        "wor",
        "st"
      ],
      [
        "ca",
        "uses"
      ],
      [
        "ta",
        "g"
      ],
      [
        "ta",
        "ins"
      ],
      [
        "pl",
        "es"
      ],
      [
        "pl",
        "ac"
      ],
      [
        "pl",
        "ants"
      ],
      [
        "po",
        "ke"
      ],
      [
        "te",
        "eth"
      ],
      [
        "sto",
        "r"
      ],
      [
        "sto",
        "ve"
      ],
      [
        "sto",
        "ck"
      ],
      [
        "pro",
        "duce"
      ],
      [
        "gre",
        "es"
      ],
      [
        "am",
        "er"
      ],
      [
        "ard",
        "s"
      ],
      [
        "ru",
        "th"
      ],
      [
        "ty",
        "pes"
      ],
      [
        "ba",
        "con"
      ],
      [
        "bu",
        "lb"
      ],
      [
        "jo",
        "ke"
      ],
      [
        "ic",
        "ally"
      ],
      [
        "ic",
        "ulo"
      ],
      [
        "de",
        "ep"
      ],
      [
        "de",
        "bra"
      ],
      [
        "de",
        "mocr"
      ],
      [
        "de",
        "grees"
      ],
      [
        "bet",
        "ween"
      ],
      [
        "great",
        "est"
      ],
      [
        "che",
        "cked"
      ],
      [
        "wa",
        "ist"
      ],
      [
        "read",
        "ing"
      ],
      [
        "min",
        "als"
      ],
      [
        "atch",
        "ing"
      ],
      [
        "fun",
        "niest"
      ],
      [
        "pa",
        "in"
      ],
      [
        "pa",
        "ges"
      ],
      [
        "bl",
        "ows"
      ],
      [
        "bl",
        "ades"
      ],
      [
        "fo",
        "ot"
      ],
      [
        "eat",
        "s"
      ],
      [
        "com",
        "mon"
      ],
      [
        "com",
        "mer"
      ],
      [
        "pre",
        "pare"
      ],
      [
        "ex",
        "plain"
      ],
      [
        "home",
        "less"
      ],
      [
        "di",
        "et"
      ],
      [
        "most",
        "ly"
      ],
      [
        "happen",
        "s"
      ],
      [
        "bo",
        "iled"
      ],
      [
        "sho",
        "e"
      ],
      [
        "even",
        "ing"
      ],
      [
        "clo",
        "th"
      ],
      [
        "wn",
        "ing"
      ],
      [
        "vot",
        "es"
      ],
      [
        "ange",
        "les"
      ],
      [
        "mat",
        "es"
      ],
      [
        "mat",
        "ed"
      ],
      [
        "mat",
        "tress"
      ],
      [
        "sp",
        "anish"
      ],
      [
        "show",
        "ed"
      ],
      [
        "show",
        "ers"
      ],
      [
        "clean",
        "er"
      ],
      [
        "clean",
        "up"
      ],
      [
        "ul",
        "ar"
      ],
      [
        "ci",
        "al"
      ],
      [
        "ci",
        "als"
      ],
      [
        "play",
        "ing"
      ],
      [
        "play",
        "ed"
      ],
      [
        "bus",
        "es"
      ],
      [
        "differ",
        "ence"
      ],
      [
        "plan",
        "ning"
      ],
      [
        "sw",
        "ine"
      ],
      [
        "sw",
        "iss"
      ],
      [
        "teach",
        "ers"
      ],
      [
        "stand",
        "ing"
      ],
      [
        "class",
        "room"
      ],
      [
        "class",
        "mates"
      ],
      [
        "spe",
        "ech"
      ],
      [
        "spe",
        "cial"
      ],
      [
        "hand",
        "le"
      ],
      [
        "tra",
        "il"
      ],
      [
        "war",
        "mer"
      ],
      [
        "lu",
        "xur"
      ],
      [
        "side",
        "walk"
      ],
      [
        "tru",
        "th"
      ],
      [
        "tru",
        "cks"
      ],
      [
        "con",
        "d"
      ],
      [
        "con",
        "t"
      ],
      [
        "mon",
        "ument"
      ],
      [
        "invit",
        "ed"
      ],
      [
        "invit",
        "ations"
      ],
      [
        "again",
        "st"
      ],
      [
        "ticket",
        "s"
      ],
      [
        "save",
        "d"
      ],
      [
        "gr",
        "ay"
      ],
      [
        "gr",
        "ound"
      ],
      [
        "gr",
        "aduate"
      ],
      [
        "cre",
        "mated"
      ],
      [
        "cri",
        "ption"
      ],
      [
        "cri",
        "minals"
      ],
      [
        "free",
        "ways"
      ],
      [
        "draw",
        "er"
      ],
      [
        "draw",
        "ing"
      ],
      [
        "men",
        "tion"
      ],
      [
        "kill",
        "ing"
      ],
      [
        "loo",
        "sen"
      ],
      [
        "sle",
        "eves"
      ],
      [
        "paint",
        "ing"
      ],
      [
        "boy",
        "friend"
      ],
      [
        "bit",
        "ter"
      ],
      [
        "ff",
        "s"
      ],
      [
        "ber",
        "ries"
      ],
      [
        "band",
        "aid"
      ],
      [
        "super",
        "market"
      ],
      [
        "bas",
        "es"
      ],
      [
        "coll",
        "ision"
      ],
      [
        "app",
        "oint"
      ],
      [
        "tu",
        "b"
      ],
      [
        "tu",
        "res"
      ],
      [
        "serious",
        "ly"
      ],
      [
        "month",
        "s"
      ],
      [
        "fruit",
        "s"
      ],
      [
        "bor",
        "ing"
      ],
      [
        "dro",
        "p"
      ],
      [
        "flo",
        "ssing"
      ],
      [
        "tr",
        "ust"
      ],
      [
        "pos",
        "itive"
      ],
      [
        "driver",
        "s"
      ],
      [
        "bro",
        "adcast"
      ],
      [
        "fla",
        "gs"
      ],
      [
        "add",
        "ress"
      ],
      [
        "cros",
        "sing"
      ],
      [
        "dry",
        "er"
      ],
      [
        "hu",
        "man"
      ],
      [
        "ran",
        "dom"
      ],
      [
        "banan",
        "as"
      ],
      [
        "sandwich",
        "es"
      ],
      [
        "cook",
        "ing"
      ],
      [
        "rid",
        "iculo"
      ],
      [
        "sen",
        "se"
      ],
      [
        "medic",
        "ation"
      ],
      [
        "str",
        "ange"
      ],
      [
        "shar",
        "p"
      ],
      [
        "sleep",
        "y"
      ],
      [
        "bar",
        "k"
      ],
      [
        "cart",
        "s"
      ],
      [
        "coun",
        "ter"
      ],
      [
        "dre",
        "w"
      ],
      [
        "fl",
        "at"
      ],
      [
        "sli",
        "p"
      ],
      [
        "cho",
        "p"
      ],
      [
        "offer",
        "ed"
      ],
      [
        "glass",
        "es"
      ],
      [
        "speed",
        "ing"
      ],
      [
        "lesson",
        "s"
      ],
      [
        "person",
        "al"
      ],
      [
        "apologiz",
        "ed"
      ],
      [
        "iet",
        "y"
      ],
      [
        "pi",
        "e"
      ],
      [
        "promis",
        "es"
      ],
      [
        "certain",
        "ly"
      ],
      [
        "bur",
        "ger"
      ],
      [
        "cu",
        "ffs"
      ],
      [
        "cha",
        "in"
      ],
      [
        "cha",
        "irs"
      ],
      [
        "cab",
        "in"
      ],
      [
        "cab",
        "inet"
      ],
      [
        "cur",
        "se"
      ],
      [
        "pic",
        "tures"
      ],
      [
        "pood",
        "le"
      ],
      [
        "pood",
        "les"
      ],
      [
        "sne",
        "ak"
      ],
      [
        "sne",
        "ezing"
      ],
      [
        "wall",
        "et"
      ],
      [
        "heat",
        "ed"
      ],
      [
        "artist",
        "s"
      ],
      [
        "windo",
        "w"
      ],
      [
        "windo",
        "ws"
      ],
      [
        "elect",
        "ed"
      ],
      [
        "elect",
        "ric"
      ],
      [
        "honest",
        "ly"
      ],
      [
        "birth",
        "day"
      ],
      [
        "fil",
        "es"
      ],
      [
        "fight",
        "er"
      ],
      [
        "hor",
        "rible"
      ],
      [
        "lan",
        "gu"
      ],
      [
        "tit",
        "le"
      ],
      [
        "sew",
        "ing"
      ],
      [
        "lic",
        "ense"
      ],
      [
        "ama",
        "zing"
      ],
      [
        "gam",
        "es"
      ],
      [
        "jerk",
        "s"
      ],
      [
        "kn",
        "ife"
      ],
      [
        "scre",
        "en"
      ],
      [
        "tas",
        "te"
      ],
      [
        "var",
        "iety"
      ],
      [
        "wood",
        "s"
      ],
      [
        "meas",
        "ures"
      ],
      [
        "belong",
        "ings"
      ],
      [
        "chin",
        "ese"
      ],
      [
        "stick",
        "s"
      ],
      [
        "actor",
        "s"
      ],
      [
        "exam",
        "ple"
      ],
      [
        "diction",
        "ary"
      ],
      [
        "chang",
        "ing"
      ],
      [
        "crowd",
        "ed"
      ],
      [
        "cal",
        "cul"
      ],
      [
        "gent",
        "ly"
      ],
      [
        "ya",
        "wning"
      ],
      [
        "near",
        "by"
      ],
      [
        "pop",
        "ular"
      ],
      [
        "quick",
        "ly"
      ],
      [
        "hurrican",
        "es"
      ],
      [
        "conver",
        "ter"
      ],
      [
        "deser",
        "ved"
      ],
      [
        "cli",
        "mb"
      ],
      [
        "dar",
        "k"
      ],
      [
        "dist",
        "ance"
      ],
      [
        "hat",
        "es"
      ],
      [
        "hil",
        "arious"
      ],
      [
        "jac",
        "ket"
      ],
      [
        "lone",
        "ly"
      ],
      [
        "moun",
        "tains"
      ],
      [
        "nad",
        "er"
      ],
      [
        "natur",
        "al"
      ],
      [
        "pin",
        "eapples"
      ],
      [
        "pun",
        "ched"
      ],
      [
        "pim",
        "ples"
      ],
      [
        "ral",
        "ph"
      ],
      [
        "san",
        "k"
      ],
      [
        "sis",
        "ter"
      ],
      [
        "scr",
        "atching"
      ],
      [
        "scu",
        "ba"
      ],
      [
        "yan",
        "kees"
      ],
      [
        "yor",
        "k"
      ],
      [
        "thre",
        "at"
      ],
      [
        "thri",
        "ft"
      ],
      [
        "inju",
        "red"
      ],
      [
        "recy",
        "cle"
      ],
      [
        "veter",
        "ans"
      ],
      [
        "hawa",
        "ii"
      ],
      [
        "christ",
        "mas"
      ],
      [
        "stro",
        "ke"
      ],
      [
        "stra",
        "ight"
      ],
      [
        "notic",
        "ed"
      ],
      [
        "subj",
        "ect"
      ],
      [
        "debra",
        "h"
      ],
      [
        "commer",
        "cials"
      ],
      [
        "luxur",
        "y"
      ],
      [
        "appoint",
        "ment"
      ],
      [
        "broadcast",
        "ing"
      ],
      [
        "ridiculo",
        "us"
      ],
      [
        "a",
        "lice"
      ],
      [
        "b",
        "orrow"
      ],
      [
        "b",
        "ird"
      ],
      [
        "c",
        "as"
      ],
      [
        "c",
        "use"
      ],
      [
        "d",
        "en"
      ],
      [
        "d",
        "est"
      ],
      [
        "d",
        "dle"
      ],
      [
        "e",
        "mer"
      ],
      [
        "h",
        "p"
      ],
      [
        "j",
        "or"
      ],
      [
        "j",
        "ess"
      ],
      [
        "k",
        "s"
      ],
      [
        "l",
        "ad"
      ],
      [
        "l",
        "fer"
      ],
      [
        "m",
        "art"
      ],
      [
        "m",
        "ist"
      ],
      [
        "o",
        "il"
      ],
      [
        "p",
        "bs"
      ],
      [
        "p",
        "imple"
      ],
      [
        "r",
        "ing"
      ],
      [
        "r",
        "ab"
      ],
      [
        "s",
        "es"
      ],
      [
        "s",
        "ad"
      ],
      [
        "s",
        "ant"
      ],
      [
        "s",
        "too"
      ],
      [
        "s",
        "having"
      ],
      [
        "s",
        "illy"
      ],
      [
        "t",
        "an"
      ],
      [
        "t",
        "wi"
      ],
      [
        "v",
        "ate"
      ],
      [
        "y",
        "ed"
      ],
      [
        "er",
        "al"
      ],
      [
        "th",
        "y"
      ],
      [
        "an",
        "ges"
      ],
      [
        "an",
        "gry"
      ],
      [
        "to",
        "es"
      ],
      [
        "re",
        "nt"
      ],
      [
        "re",
        "mot"
      ],
      [
        "it",
        "ic"
      ],
      [
        "is",
        "hed"
      ],
      [
        "or",
        "anges"
      ],
      [
        "en",
        "na"
      ],
      [
        "ar",
        "gu"
      ],
      [
        "he",
        "y"
      ],
      [
        "he",
        "al"
      ],
      [
        "ow",
        "cas"
      ],
      [
        "go",
        "lfer"
      ],
      [
        "so",
        "fa"
      ],
      [
        "li",
        "br"
      ],
      [
        "st",
        "ri"
      ],
      [
        "st",
        "un"
      ],
      [
        "no",
        "ise"
      ],
      [
        "al",
        "arm"
      ],
      [
        "don",
        "ate"
      ],
      [
        "ant",
        "enna"
      ],
      [
        "ter",
        "s"
      ],
      [
        "can",
        "cer"
      ],
      [
        "un",
        "dry"
      ],
      [
        "un",
        "lucky"
      ],
      [
        "ro",
        "yed"
      ],
      [
        "co",
        "ps"
      ],
      [
        "your",
        "s"
      ],
      [
        "ho",
        "b"
      ],
      [
        "ho",
        "mes"
      ],
      [
        "su",
        "ck"
      ],
      [
        "su",
        "cks"
      ],
      [
        "su",
        "pers"
      ],
      [
        "ma",
        "ga"
      ],
      [
        "ma",
        "jor"
      ],
      [
        "fe",
        "lt"
      ],
      [
        "fe",
        "male"
      ],
      [
        "sa",
        "ving"
      ],
      [
        "ca",
        "p"
      ],
      [
        "pl",
        "astic"
      ],
      [
        "car",
        "ton"
      ],
      [
        "mu",
        "le"
      ],
      [
        "ru",
        "les"
      ],
      [
        "ty",
        "ping"
      ],
      [
        "ba",
        "g"
      ],
      [
        "ba",
        "be"
      ],
      [
        "la",
        "undry"
      ],
      [
        "per",
        "fu"
      ],
      [
        "de",
        "fin"
      ],
      [
        "che",
        "at"
      ],
      [
        "che",
        "mist"
      ],
      [
        "fun",
        "eral"
      ],
      [
        "pa",
        "cks"
      ],
      [
        "ite",
        "ly"
      ],
      [
        "has",
        "n"
      ],
      [
        "pre",
        "fer"
      ],
      [
        "ree",
        "le"
      ],
      [
        "hope",
        "full"
      ],
      [
        "ex",
        "cuse"
      ],
      [
        "job",
        "s"
      ],
      [
        "bo",
        "ss"
      ],
      [
        "clo",
        "ser"
      ],
      [
        "ger",
        "ms"
      ],
      [
        "by",
        "e"
      ],
      [
        "bus",
        "h"
      ],
      [
        "night",
        "s"
      ],
      [
        "ball",
        "ot"
      ],
      [
        "after",
        "noon"
      ],
      [
        "hi",
        "ke"
      ],
      [
        "find",
        "ing"
      ],
      [
        "care",
        "ful"
      ],
      [
        "pu",
        "ddle"
      ],
      [
        "war",
        "ned"
      ],
      [
        "cold",
        "er"
      ],
      [
        "gr",
        "oup"
      ],
      [
        "fin",
        "ally"
      ],
      [
        "fin",
        "ished"
      ],
      [
        "chan",
        "ges"
      ],
      [
        "pri",
        "ces"
      ],
      [
        "pri",
        "vate"
      ],
      [
        "sal",
        "ads"
      ],
      [
        "fish",
        "ing"
      ],
      [
        "sle",
        "eve"
      ],
      [
        "fire",
        "man"
      ],
      [
        "ten",
        "s"
      ],
      [
        "seat",
        "belt"
      ],
      [
        "card",
        "s"
      ],
      [
        "ban",
        "k"
      ],
      [
        "hon",
        "k"
      ],
      [
        "tr",
        "ade"
      ],
      [
        "sell",
        "er"
      ],
      [
        "bro",
        "ther"
      ],
      [
        "gun",
        "s"
      ],
      [
        "dru",
        "g"
      ],
      [
        "pol",
        "itic"
      ],
      [
        "pupp",
        "ies"
      ],
      [
        "wear",
        "ing"
      ],
      [
        "sleep",
        "ing"
      ],
      [
        "coun",
        "try"
      ],
      [
        "attend",
        "ed"
      ],
      [
        "pi",
        "lot"
      ],
      [
        "promis",
        "e"
      ],
      [
        "accident",
        "s"
      ],
      [
        "penc",
        "il"
      ],
      [
        "brush",
        "ing"
      ],
      [
        "gen",
        "cy"
      ],
      [
        "hell",
        "o"
      ],
      [
        "sharpen",
        "er"
      ],
      [
        "fig",
        "ure"
      ],
      [
        "pill",
        "ows"
      ],
      [
        "pill",
        "owcas"
      ],
      [
        "burn",
        "ed"
      ],
      [
        "cru",
        "ise"
      ],
      [
        "repor",
        "ters"
      ],
      [
        "poet",
        "ry"
      ],
      [
        "vie",
        "w"
      ],
      [
        "reserv",
        "ation"
      ],
      [
        "complete",
        "ly"
      ],
      [
        "pub",
        "lic"
      ],
      [
        "grand",
        "ma"
      ],
      [
        "stomacha",
        "che"
      ],
      [
        "cus",
        "tom"
      ],
      [
        "bird",
        "s"
      ],
      [
        "dest",
        "royed"
      ],
      [
        "emer",
        "gency"
      ],
      [
        "jess",
        "ica"
      ],
      [
        "lad",
        "y"
      ],
      [
        "rab",
        "bit"
      ],
      [
        "sant",
        "a"
      ],
      [
        "stoo",
        "d"
      ],
      [
        "twi",
        "ce"
      ],
      [
        "remot",
        "e"
      ],
      [
        "libr",
        "ary"
      ],
      [
        "stun",
        "k"
      ],
      [
        "supers",
        "mart"
      ],
      [
        "maga",
        "z"
      ],
      [
        "perfu",
        "me"
      ],
      [
        "defin",
        "itely"
      ],
      [
        "chemist",
        "ry"
      ],
      [
        "hopefull",
        "y"
      ],
      [
        "pillowcas",
        "es"
      ],
      [
        "!",
        ".."
      ],
      [
        ".",
        "?"
      ],
      [
        "0",
        "1"
      ],
      [
        "1",
        "3"
      ],
      [
        "1",
        "20"
      ],
      [
        "2",
        "2"
      ],
      [
        "2",
        "4"
      ],
      [
        "2",
        "5"
      ],
      [
        "3",
        "story"
      ],
      [
        "4",
        "4"
      ],
      [
        "6",
        "00"
      ],
      [
        "7",
        "0"
      ],
      [
        "8",
        "7"
      ],
      [
        "8",
        "15"
      ],
      [
        "9",
        "15"
      ],
      [
        "a",
        "u"
      ],
      [
        "a",
        "w"
      ],
      [
        "a",
        "is"
      ],
      [
        "a",
        "li"
      ],
      [
        "a",
        "ver"
      ],
      [
        "a",
        "king"
      ],
      [
        "a",
        "pri"
      ],
      [
        "a",
        "live"
      ],
      [
        "a",
        "pers"
      ],
      [
        "a",
        "ges"
      ],
      [
        "a",
        "wake"
      ],
      [
        "a",
        "led"
      ],
      [
        "a",
        "head"
      ],
      [
        "a",
        "vo"
      ],
      [
        "a",
        "ches"
      ],
      [
        "b",
        "es"
      ],
      [
        "b",
        "is"
      ],
      [
        "b",
        "ay"
      ],
      [
        "b",
        "oo"
      ],
      [
        "b",
        "ly"
      ],
      [
        "b",
        "il"
      ],
      [
        "b",
        "ite"
      ],
      [
        "c",
        "one"
      ],
      [
        "c",
        "ere"
      ],
      [
        "c",
        "et"
      ],
      [
        "c",
        "ad"
      ],
      [
        "c",
        "up"
      ],
      [
        "c",
        "il"
      ],
      [
        "c",
        "off"
      ],
      [
        "c",
        "ist"
      ],
      [
        "c",
        "ough"
      ],
      [
        "c",
        "red"
      ],
      [
        "c",
        "ash"
      ],
      [
        "c",
        "ise"
      ],
      [
        "c",
        "rub"
      ],
      [
        "c",
        "ode"
      ],
      [
        "d",
        "s"
      ],
      [
        "d",
        "ut"
      ],
      [
        "d",
        "ge"
      ],
      [
        "d",
        "am"
      ],
      [
        "d",
        "row"
      ],
      [
        "d",
        "gers"
      ],
      [
        "d",
        "dy"
      ],
      [
        "d",
        "ouble"
      ],
      [
        "d",
        "rown"
      ],
      [
        "d",
        "ama"
      ],
      [
        "d",
        "den"
      ],
      [
        "e",
        "e"
      ],
      [
        "e",
        "v"
      ],
      [
        "e",
        "y"
      ],
      [
        "e",
        "es"
      ],
      [
        "e",
        "ld"
      ],
      [
        "e",
        "book"
      ],
      [
        "e",
        "bay"
      ],
      [
        "f",
        "y"
      ],
      [
        "f",
        "to"
      ],
      [
        "f",
        "ur"
      ],
      [
        "f",
        "ac"
      ],
      [
        "f",
        "light"
      ],
      [
        "f",
        "ans"
      ],
      [
        "g",
        "an"
      ],
      [
        "g",
        "is"
      ],
      [
        "g",
        "ar"
      ],
      [
        "g",
        "ed"
      ],
      [
        "g",
        "ust"
      ],
      [
        "g",
        "ic"
      ],
      [
        "g",
        "ist"
      ],
      [
        "g",
        "ine"
      ],
      [
        "g",
        "hed"
      ],
      [
        "g",
        "loves"
      ],
      [
        "h",
        "ar"
      ],
      [
        "h",
        "itting"
      ],
      [
        "h",
        "arm"
      ],
      [
        "i",
        "q"
      ],
      [
        "i",
        "le"
      ],
      [
        "i",
        "gh"
      ],
      [
        "i",
        "can"
      ],
      [
        "i",
        "co"
      ],
      [
        "i",
        "ent"
      ],
      [
        "i",
        "ma"
      ],
      [
        "i",
        "let"
      ],
      [
        "i",
        "als"
      ],
      [
        "i",
        "ps"
      ],
      [
        "i",
        "tor"
      ],
      [
        "j",
        "an"
      ],
      [
        "j",
        "ay"
      ],
      [
        "j",
        "et"
      ],
      [
        "j",
        "am"
      ],
      [
        "j",
        "ets"
      ],
      [
        "k",
        "ne"
      ],
      [
        "l",
        "er"
      ],
      [
        "l",
        "ing"
      ],
      [
        "l",
        "as"
      ],
      [
        "l",
        "ar"
      ],
      [
        "l",
        "ay"
      ],
      [
        "l",
        "ab"
      ],
      [
        "l",
        "end"
      ],
      [
        "l",
        "ors"
      ],
      [
        "l",
        "ence"
      ],
      [
        "m",
        "all"
      ],
      [
        "m",
        "al"
      ],
      [
        "m",
        "ly"
      ],
      [
        "m",
        "ir"
      ],
      [
        "m",
        "ur"
      ],
      [
        "m",
        "per"
      ],
      [
        "m",
        "ood"
      ],
      [
        "m",
        "ps"
      ],
      [
        "o",
        "on"
      ],
      [
        "o",
        "me"
      ],
      [
        "o",
        "pp"
      ],
      [
        "o",
        "lence"
      ],
      [
        "p",
        "ou"
      ],
      [
        "p",
        "at"
      ],
      [
        "p",
        "to"
      ],
      [
        "p",
        "on"
      ],
      [
        "p",
        "ed"
      ],
      [
        "p",
        "hot"
      ],
      [
        "r",
        "er"
      ],
      [
        "r",
        "ot"
      ],
      [
        "r",
        "in"
      ],
      [
        "r",
        "or"
      ],
      [
        "r",
        "out"
      ],
      [
        "r",
        "ust"
      ],
      [
        "r",
        "ound"
      ],
      [
        "r",
        "ation"
      ],
      [
        "r",
        "hy"
      ],
      [
        "s",
        "y"
      ],
      [
        "s",
        "us"
      ],
      [
        "s",
        "ou"
      ],
      [
        "s",
        "in"
      ],
      [
        "s",
        "we"
      ],
      [
        "s",
        "have"
      ],
      [
        "s",
        "wi"
      ],
      [
        "s",
        "well"
      ],
      [
        "s",
        "il"
      ],
      [
        "s",
        "ite"
      ],
      [
        "s",
        "qu"
      ],
      [
        "s",
        "kill"
      ],
      [
        "s",
        "nor"
      ],
      [
        "s",
        "poke"
      ],
      [
        "s",
        "crub"
      ],
      [
        "t",
        "ot"
      ],
      [
        "t",
        "re"
      ],
      [
        "t",
        "ay"
      ],
      [
        "t",
        "went"
      ],
      [
        "t",
        "ables"
      ],
      [
        "t",
        "wel"
      ],
      [
        "u",
        "b"
      ],
      [
        "u",
        "es"
      ],
      [
        "u",
        "ed"
      ],
      [
        "u",
        "ck"
      ],
      [
        "u",
        "ho"
      ],
      [
        "u",
        "gs"
      ],
      [
        "u",
        "red"
      ],
      [
        "u",
        "ary"
      ],
      [
        "u",
        "cet"
      ],
      [
        "v",
        "al"
      ],
      [
        "v",
        "ive"
      ],
      [
        "v",
        "ous"
      ],
      [
        "v",
        "ator"
      ],
      [
        "w",
        "at"
      ],
[...]
